{
  "</s>": 0,
  "<unk>": 1,
  ",": 2,
  ".": 3,
  "\u2581the": 4,
  "\u2581in": 5,
  "s": 6,
  "\u2581of": 7,
  "\u2581and": 8,
  "\u2581der": 9,
  "\u2581und": 10,
  "\u2581die": 11,
  "\u2581to": 12,
  "-": 13,
  "\u2581a": 14,
  "en": 15,
  ":": 16,
  "\u2581": 17,
  "e": 18,
  "\u2581is": 19,
  "\u2581(": 20,
  "\u2581von": 21,
  "'": 22,
  "\u2581for": 23,
  "\u2581zu": 24,
  "\u2581den": 25,
  "\u2581-": 26,
  ")": 27,
  "\u2581f\u00fcr": 28,
  "\u2581ist": 29,
  "\u2581mit": 30,
  "?": 31,
  "\u2581on": 32,
  "\u2581with": 33,
  "n": 34,
  "\u2581that": 35,
  "\u2581The": 36,
  "\u2581auf": 37,
  "\u2581I": 38,
  "\u2581an": 39,
  "\u2581des": 40,
  "\u2581you": 41,
  "\u2581Sie": 42,
  "\u2581be": 43,
  "\u2581das": 44,
  "er": 45,
  "t": 46,
  "\u2581\"": 47,
  "\u2581are": 48,
  "\u2581im": 49,
  "\u2581eine": 50,
  "\u2581nicht": 51,
  "\u2581as": 52,
  "\u2581ein": 53,
  "\u2581by": 54,
  "\u2581Die": 55,
  "\u2581it": 56,
  "\u2581dem": 57,
  "\u2581was": 58,
  "\u2581from": 59,
  "\u2581this": 60,
  "\u2581werden": 61,
  "\u2581or": 62,
  "\u2581sich": 63,
  "\u2581In": 64,
  "\u2581es": 65,
  "\u2581not": 66,
  "\u2581at": 67,
  "!": 68,
  "\u2581oder": 69,
  "\u2581sind": 70,
  "\"": 71,
  "\u2581have": 72,
  "\u2581will": 73,
  "\u2581aus": 74,
  "/": 75,
  "\u2581sie": 76,
  ";": 77,
  "\u2581als": 78,
  "ing": 79,
  "\u2581wird": 80,
  "\u2581\u00fcber": 81,
  "d": 82,
  "\u2581your": 83,
  "\u2581ich": 84,
  "\u2581can": 85,
  "\u2581which": 86,
  "\u2581dass": 87,
  "\u2581so": 88,
  "\u2581auch": 89,
  "m": 90,
  "\u2581um": 91,
  "\u2581all": 92,
  "\u2581A": 93,
  "\u2581einer": 94,
  "\u2581we": 95,
  "\u2581nach": 96,
  "es": 97,
  "...": 98,
  "\u2581has": 99,
  "\u2581wir": 100,
  "\u2581zur": 101,
  "\u2581bei": 102,
  "\u2581Das": 103,
  "r": 104,
  "\u2581Ich": 105,
  "\u2581einen": 106,
  "\u2581wie": 107,
  "ed": 108,
  "\u2581hat": 109,
  "\u2581er": 110,
  "a": 111,
  "\u2581\u2013": 112,
  "\u25811": 113,
  "\u2581haben": 114,
  "\u2581also": 115,
  "\u25812": 116,
  "\u2581einem": 117,
  "in": 118,
  "\u2581Der": 119,
  "\u2581durch": 120,
  "\u2581am": 121,
  ").": 122,
  "\u2581zum": 123,
  "\u2581S": 124,
  "\u2581our": 125,
  "\u2581more": 126,
  "\u2581k\u00f6nnen": 127,
  "\u2581one": 128,
  "\u25813": 129,
  "\u2581their": 130,
  "\u2581It": 131,
  "y": 132,
  "\u2581war": 133,
  "\u2581kann": 134,
  "re": 135,
  "\u2581its": 136,
  "\u2581he": 137,
  "\u2581wurde": 138,
  "\u2581nur": 139,
  "\u2581This": 140,
  "\u2581they": 141,
  "S": 142,
  "\u2581du": 143,
  "\u2581but": 144,
  "\u2581vor": 145,
  "\u2581You": 146,
  "\u2581other": 147,
  "\u2581B": 148,
  "\u2581Es": 149,
  "\u2581up": 150,
  "\u2581European": 151,
  "\u2581been": 152,
  "\u2581about": 153,
  "\u2581his": 154,
  "\u2581E": 155,
  "\u2581do": 156,
  "\u2581We": 157,
  "\u2581uns": 158,
  "\u2581bis": 159,
  "\u2581time": 160,
  "\u2581out": 161,
  "\u2581vom": 162,
  "),": 163,
  "\u2581me": 164,
  "\u2581&": 165,
  "o": 166,
  "\u2581sein": 167,
  "\u2581new": 168,
  "\u2581there": 169,
  "\u2581diese": 170,
  "\u2581dieser": 171,
  "\u2581were": 172,
  "\u25815": 173,
  "\u2581noch": 174,
  "\u2581man": 175,
  "\u2581wenn": 176,
  "\u2581only": 177,
  "de": 178,
  "\u2581aber": 179,
  "ung": 180,
  "ly": 181,
  "\u2581Wir": 182,
  "\u2581C": 183,
  "\u25814": 184,
  "\u2581mehr": 185,
  "C": 186,
  "\u2581my": 187,
  "B": 188,
  "\u2581who": 189,
  "\u2581should": 190,
  "\u2581no": 191,
  "\u2581unter": 192,
  "\u2581\u2014": 193,
  "\u2581da\u00df": 194,
  "\u2581Commission": 195,
  "\u2581into": 196,
  "i": 197,
  "\u2581\u201e": 198,
  "\u2581EU": 199,
  "\u2581No": 200,
  "\u2581Er": 201,
  "\u2581L": 202,
  "\u2581Kommission": 203,
  "\u258110": 204,
  "\u2581if": 205,
  "\u2581would": 206,
  "\u2581what": 207,
  "\u2581them": 208,
  "\u2581like": 209,
  "\u2581us": 210,
  "A": 211,
  "\u2581alle": 212,
  "al": 213,
  "g": 214,
  "\u2581had": 215,
  "h": 216,
  "2": 217,
  "\u2581shall": 218,
  "\u2581than": 219,
  "\u2581any": 220,
  ".\"": 221,
  "\u2581eines": 222,
  "st": 223,
  "\u2581use": 224,
  "D": 225,
  "\u2581first": 226,
  "te": 227,
  "\u2581Und": 228,
  "\u2581information": 229,
  "\u2581de": 230,
  "\u2581He": 231,
  "\u2581when": 232,
  "\u2581T": 233,
  "\u25816": 234,
  "b": 235,
  "\u2581And": 236,
  "\u2581these": 237,
  "\u2581people": 238,
  "z": 239,
  "\u2581Artikel": 240,
  "\u2581Union": 241,
  "\u2581P": 242,
  "\u2581such": 243,
  "\u2581hier": 244,
  "\u2581ab": 245,
  "\u2581Ein": 246,
  "\u2581sowie": 247,
  "\u2581So": 248,
  "\u2581her": 249,
  "k": 250,
  "\u2581well": 251,
  "\u2581may": 252,
  "\u2581know": 253,
  "\u2581two": 254,
  "\u2581'": 255,
  "\u2581very": 256,
  "\u2581between": 257,
  "\u2581ver": 258,
  "\u2581here": 259,
  "\u2581mich": 260,
  "\u2581sehr": 261,
  "\u2581ihre": 262,
  "\u2581D": 263,
  "\u2581just": 264,
  "c": 265,
  "\u2581over": 266,
  "\u2581M": 267,
  "\u258118": 268,
  "\u2581work": 269,
  "\u2581G": 270,
  "\u2581years": 271,
  "\u2581K": 272,
  "\u2581zwischen": 273,
  "\u2581Member": 274,
  "\u2581diesem": 275,
  "\u2581anderen": 276,
  "\u2581keine": 277,
  "\u2581mir": 278,
  "den": 279,
  "\u2581now": 280,
  "\u2581Im": 281,
  "\u2581An": 282,
  "\u2581States": 283,
  "\u2581ihr": 284,
  "\u2581m": 285,
  "\u2581some": 286,
  "an": 287,
  "th": 288,
  "\u2581Ihre": 289,
  "ll": 290,
  "\u258120": 291,
  "\u2581For": 292,
  "\u2581/": 293,
  "\u2581F": 294,
  "\u2581If": 295,
  "\u2581Zeit": 296,
  "\u2581gibt": 297,
  "\u2581wurden": 298,
  "\u2581where": 299,
  "\u25817": 300,
  "\u2581must": 301,
  "\u2581Wenn": 302,
  "\u2581him": 303,
  "F": 304,
  "3": 305,
  "\u2581most": 306,
  "\u2581What": 307,
  "\u2581Hotel": 308,
  "\u25818": 309,
  "\u2581da": 310,
  "\u2581under": 311,
  "\u2581Be": 312,
  "\u2581Du": 313,
  "ten": 314,
  "\u2581right": 315,
  "or": 316,
  "\u2581Council": 317,
  "\u2581un": 318,
  "\u2581made": 319,
  "\u2581Europ\u00e4ischen": 320,
  "E": 321,
  "\u2581e": 322,
  "\u2581Ver": 323,
  "\u2581dann": 324,
  "\u2581m\u00fcssen": 325,
  "K": 326,
  "\",": 327,
  "\u2581get": 328,
  "\u2581V": 329,
  "\u2581data": 330,
  "\u2581...": 331,
  "\u2581year": 332,
  "\u2581Diese": 333,
  "\u2581habe": 334,
  "\u258115": 335,
  "]": 336,
  "us": 337,
  "\u2581zwei": 338,
  "\u2581take": 339,
  "\u2581make": 340,
  "\u2581%": 341,
  "H": 342,
  "\u2581per": 343,
  "\u258112": 344,
  "\u2581Jahr": 345,
  "\u2581_": 346,
  "\u258130": 347,
  "l": 348,
  "\u2581after": 349,
  "P": 350,
  "f": 351,
  "\u2581Was": 352,
  "\u2581immer": 353,
  "be": 354,
  "\u2581need": 355,
  "\u2581those": 356,
  "\u2581R": 357,
  "ve": 358,
  "\u2581used": 359,
  "\u2581world": 360,
  "\u2581dieses": 361,
  "\u2581way": 362,
  "\u2581seine": 363,
  "V": 364,
  "1": 365,
  "\u2581products": 366,
  "\u2581Community": 367,
  "\u2581system": 368,
  "\u2581Daten": 369,
  "\u2581Article": 370,
  "\u2581re": 371,
  "\u2581ge": 372,
  "\u2581Ihnen": 373,
  "\u2581many": 374,
  "G": 375,
  "\u2581Mit": 376,
  "ge": 377,
  "\u2581H": 378,
  "\u2581see": 379,
  "to": 380,
  "\u2581Mr": 381,
  "com": 382,
  "T": 383,
  "\u2581then": 384,
  "\u2581[": 385,
  "\u2581through": 386,
  "M": 387,
  "\u2581Auf": 388,
  "\u2581order": 389,
  "\u2581But": 390,
  "\u2581km": 391,
  "\u2581want": 392,
  "on": 393,
  "\u2581N": 394,
  "\u25819": 395,
  "\u2581Informationen": 396,
  "\u2581could": 397,
  "W": 398,
  "\u2581All": 399,
  "\".": 400,
  "\u2581Welt": 401,
  "\u2581good": 402,
  "x": 403,
  "The": 404,
  "\u2581area": 405,
  "\u2581how": 406,
  "\u2581part": 407,
  "\u2581available": 408,
  "\u2581Menschen": 409,
  "\u2581andere": 410,
  "\u2581Unternehmen": 411,
  "\u2581even": 412,
  "\u2581don": 413,
  "\u2581Art": 414,
  "\u2581W": 415,
  "\u2581high": 416,
  "\u2581\u20ac": 417,
  "em": 418,
  "\u2581countries": 419,
  "\u2581pro": 420,
  "\u2581day": 421,
  "\u2581back": 422,
  "\u2581Wie": 423,
  "\u2581Entwicklung": 424,
  "\u2581Regulation": 425,
  "\u2581same": 426,
  "\u2581wieder": 427,
  "\u2581market": 428,
  "\u2581To": 429,
  "\u2581go": 430,
  "\u2581Jahre": 431,
  "\u2581As": 432,
  "\u2581because": 433,
  "\u2581neue": 434,
  "N": 435,
  "\u2581ihrer": 436,
  "\u2581before": 437,
  "\u2581number": 438,
  "\u2581within": 439,
  "ation": 440,
  "\u2581There": 441,
  "le": 442,
  "\u2581place": 443,
  "I": 444,
  "\u2581Mitgliedstaaten": 445,
  "\u2581damit": 446,
  "\u2581muss": 447,
  "\u25810": 448,
  "\u2581ihn": 449,
  "\u2581find": 450,
  "\u2581ohne": 451,
  "\u2581set": 452,
  "\u2581Europe": 453,
  "\u2581life": 454,
  "ver": 455,
  "\u2581Verordnung": 456,
  "\u2581being": 457,
  "\u2581schon": 458,
  "\u2581following": 459,
  "ia": 460,
  "\u2581free": 461,
  "ers": 462,
  "\u2581down": 463,
  "\u2581p": 464,
  "\u2581Re": 465,
  "\u2581said": 466,
  "\u2581dich": 467,
  "\u2581Jahren": 468,
  "\u2581Ihr": 469,
  "\u2581O": 470,
  "\u2581unsere": 471,
  "\u2581:": 472,
  "\u2581she": 473,
  "\u2581God": 474,
  "(": 475,
  "\u2581New": 476,
  "um": 477,
  "\u2581development": 478,
  "\u2581Stadt": 479,
  "\u2581different": 480,
  "\u2581gegen": 481,
  "\u2581Nr": 482,
  "\u2581finden": 483,
  "\u2581seiner": 484,
  "\u2581diesen": 485,
  "et": 486,
  "\u2581That": 487,
  "\u2581online": 488,
  "\u25811.": 489,
  "\u2581F\u00fcr": 490,
  "\u2581They": 491,
  "ch": 492,
  "is": 493,
  "\u2581product": 494,
  "\u2581bin": 495,
  "\u2581On": 496,
  "4": 497,
  "\u2581Ab": 498,
  "\u2581waren": 499,
  "the": 500,
  "\u2581important": 501,
  "\u2581Nach": 502,
  "p": 503,
  "\u2581without": 504,
  "\u2581long": 505,
  "\u2581each": 506,
  "\u258117": 507,
  "\u2581own": 508,
  "\u258116": 509,
  "\u2581U": 510,
  "\u2581Gemeinschaft": 511,
  "\u258111": 512,
  "\u2581hatte": 513,
  "\u2581.": 514,
  "\u2581sollte": 515,
  "able": 516,
  "\u2581best": 517,
  "\u2581Ge": 518,
  "\u2581gut": 519,
  "\u2581support": 520,
  "\u2581possible": 521,
  "\u2581machen": 522,
  "L": 523,
  "man": 524,
  "\u2581Eine": 525,
  "el": 526,
  "\u2581case": 527,
  "at": 528,
  "\u2581Aber": 529,
  "\u2581still": 530,
  "\u2581service": 531,
  "\u2581services": 532,
  "\u2581neuen": 533,
  "\u2581three": 534,
  "\u2581does": 535,
  "\u258114": 536,
  "der": 537,
  "\u2581jetzt": 538,
  "\u2581Teil": 539,
  "ic": 540,
  "\u2581selbst": 541,
  "EC": 542,
  "\u2581Vor": 543,
  "\u2581did": 544,
  "\u2581Land": 545,
  "\u2581during": 546,
  "\u2581both": 547,
  "\u2581help": 548,
  "\u2581Aus": 549,
  "\u2581St": 550,
  "\u2581etwas": 551,
  "ne": 552,
  "\u2581denen": 553,
  "\u258125": 554,
  "\u2581Germany": 555,
  "\u2581Ja": 556,
  "\u2581w\u00e4hrend": 557,
  "\u2581come": 558,
  "\u2581last": 559,
  "\u2581since": 560,
  "\u2581public": 561,
  "\u2581ihren": 562,
  "\u2581wo": 563,
  "\u2581car": 564,
  "na": 565,
  "\u2581ihm": 566,
  "\u2581drei": 567,
  "\u2581social": 568,
  "\u2581think": 569,
  "it": 570,
  "\u2581Rahmen": 571,
  "\u2581Am": 572,
  "\u2581EUR": 573,
  "\u2581At": 574,
  "\u2581level": 575,
  "\u2581policy": 576,
  "\u2581100": 577,
  "\u2581La": 578,
  "\u2581\u00bb": 579,
  "\u2581Um": 580,
  "\u2581zur\u00fcck": 581,
  "\u2581seit": 582,
  "\u2581jedoch": 583,
  "\u2581much": 584,
  "_": 585,
  "\u2581German": 586,
  "\u2581My": 587,
  "\u2581Dr": 588,
  "\u2581Z": 589,
  "\u2581Tag": 590,
  "\u2581Da": 591,
  "\u2581unserer": 592,
  "\u2581against": 593,
  "\u2581Bei": 594,
  "\u258150": 595,
  "\u2581Ma\u00dfnahmen": 596,
  "\u2581national": 597,
  "\u2581end": 598,
  "\u2581De": 599,
  "\u2581dir": 600,
  "\u2581bietet": 601,
  "\u2581Leben": 602,
  "u": 603,
  "\u2581\u00dcber": 604,
  "Z": 605,
  "\u2581sollten": 606,
  "\u2581ersten": 607,
  "\u2581Seite": 608,
  "In": 609,
  "\u2581offers": 610,
  "\u2581bereits": 611,
  "\u258113": 612,
  "\u2581international": 613,
  "\u2581great": 614,
  "\u2581measures": 615,
  "\u2581water": 616,
  "\u2581allen": 617,
  "land": 618,
  "\u2581sondern": 619,
  "EG": 620,
  "ter": 621,
  "\u2581meine": 622,
  "R": 623,
  "O": 624,
  "\u2581Absatz": 625,
  "\u2581Parliament": 626,
  "\u2581viele": 627,
  "\u2581ob": 628,
  "\u2581Do": 629,
  "\u2581doch": 630,
  "w": 631,
  "\u2581denn": 632,
  "\u2581Home": 633,
  "\u2581conditions": 634,
  "\u2581point": 635,
  "\u2581every": 636,
  "ar": 637,
  "\u2581Service": 638,
  "ab": 639,
  "\u258124": 640,
  "up": 641,
  "\u2581city": 642,
  "\u2581company": 643,
  "\u2581sehen": 644,
  "\u2581soll": 645,
  "\u2581already": 646,
  "\u2581production": 647,
  "\u2581around": 648,
  "sch": 649,
  "\u2581How": 650,
  "ist": 651,
  "\u2581geht": 652,
  "\u2581days": 653,
  "\u2581Kinder": 654,
  "\u2581Alle": 655,
  "\u2581file": 656,
  "\u2581particular": 657,
  "ity": 658,
  "\u2581Deutschland": 659,
  "ig": 660,
  "\u2581Preis": 661,
  "\u2581including": 662,
  "\u2581Internet": 663,
  "\u2581quality": 664,
  "\u2581viel": 665,
  "\u2581heute": 666,
  "\u2581alles": 667,
  "\u2581Berlin": 668,
  "\u2581Produkt": 669,
  "co": 670,
  "\u2581name": 671,
  "\u2581Wasser": 672,
  "\u2581Europa": 673,
  "\u2581State": 674,
  "\u2581too": 675,
  "\u2581say": 676,
  "se": 677,
  "\u2581ihnen": 678,
  "\u2581Arbeit": 679,
  "\u2581means": 680,
  "\u2581einfach": 681,
  "\u2581room": 682,
  "\u2581country": 683,
  "\u2581With": 684,
  "im": 685,
  "\u2581business": 686,
  "\u2581zusammen": 687,
  "\u2581Rat": 688,
  "\u2581English": 689,
  "\u2581Herr": 690,
  "\u2581Man": 691,
  "Die": 692,
  "\u2581*": 693,
  "\u2581J": 694,
  "ie": 695,
  "\u2581again": 696,
  "\u2581small": 697,
  "\u258119": 698,
  "\u2581economic": 699,
  "\u2581b": 700,
  "\u2581erhalten": 701,
  "\u2581ganz": 702,
  "ion": 703,
  "\u2581view": 704,
  "ur": 705,
  "\u2581research": 706,
  "\u2581Euro": 707,
  "\u2581weiter": 708,
  "\u2581give": 709,
  "\u2581President": 710,
  "\u2581d": 711,
  "\u2581period": 712,
  "\u2581process": 713,
  "\u2581report": 714,
  "\u2581seinen": 715,
  "\u2581beim": 716,
  "ische": 717,
  "\u2581w\u00fcrde": 718,
  "\u2581United": 719,
  "\u2581liegt": 720,
  "\u2581X": 721,
  "\u2581wissen": 722,
  "\u2581found": 723,
  "5": 724,
  "lich": 725,
  "\u2581Co": 726,
  "\u2581form": 727,
  "ment": 728,
  "\u2581September": 729,
  "ton": 730,
  "ner": 731,
  "\u2581Bereich": 732,
  "\u2581+": 733,
  "\u2581children": 734,
  "\u2581further": 735,
  "\u2581g": 736,
  "\u2581November": 737,
  "\u2581Committee": 738,
  "\u2581price": 739,
  "\u2581open": 740,
  "\u2581Produkte": 741,
  "\u2581==": 742,
  "\u2581while": 743,
  "\u2581System": 744,
  "sten": 745,
  "\u2581She": 746,
  "\u25812015": 747,
  "\u258121": 748,
  "gen": 749,
  "\u2581Kunden": 750,
  "\u2581going": 751,
  "\u2581euch": 752,
  "\u2581got": 753,
  "\u2581energy": 754,
  "\u2581provided": 755,
  "\u2581million": 756,
  "\u2581April": 757,
  "ry": 758,
  "iert": 759,
  "und": 760,
  "*": 761,
  "\u2581example": 762,
  "\u2581Richtlinie": 763,
  "\u2581tun": 764,
  "\u2581weil": 765,
  "\u2581Pro": 766,
  "\u2581Gott": 767,
  "\u2581Zu": 768,
  "\u2581times": 769,
  "\u2581able": 770,
  "\u2581working": 771,
  "\u258140": 772,
  "\u2581special": 773,
  "\u2581When": 774,
  "\u2581Kontakt": 775,
  "ern": 776,
  "\u2581Deutsch": 777,
  "\u2581Your": 778,
  "\u2581Fall": 779,
  "\u2581course": 780,
  "ieren": 781,
  "\u2581Frage": 782,
  "\u2581Zimmer": 783,
  "\u2581\u2022": 784,
  "\u2581gem\u00e4\u00df": 785,
  "\u2581application": 786,
  "\u2581i": 787,
  "\u2581Frau": 788,
  "\u2581provide": 789,
  "ma": 790,
  "\u2581financial": 791,
  "\u2581using": 792,
  "un": 793,
  "\u2581based": 794,
  "\u2581Haus": 795,
  "\u2581hand": 796,
  "\u2581necessary": 797,
  "\u2581insbesondere": 798,
  "\u2581full": 799,
  "\u2581power": 800,
  "ischen": 801,
  "\u2581home": 802,
  "liche": 803,
  "\u2581always": 804,
  "\u2581therefore": 805,
  "\u2581second": 806,
  "\u2581lassen": 807,
  "\u2581TV": 808,
  "\u2581family": 809,
  "\u2581wei\u00df": 810,
  "\u2581another": 811,
  "\u2581dazu": 812,
  "\u2581large": 813,
  "Y": 814,
  "\u2581Hotels": 815,
  "\u2581off": 816,
  "as": 817,
  "\u2581project": 818,
  "\u2581kein": 819,
  "\u2581Recht": 820,
  "J": 821,
  "EN": 822,
  "X": 823,
  "\u25812016": 824,
  "\u2581sagen": 825,
  "\u2581mal": 826,
  "v": 827,
  "\u2581future": 828,
  "ste": 829,
  "\u2581Directive": 830,
  "bar": 831,
  "\u2581real": 832,
  "\u25812.": 833,
  "il": 834,
  "\u2581next": 835,
  "\u2581Personen": 836,
  "\u2581Jesus": 837,
  "\u2581human": 838,
  "\u2581little": 839,
  "\u2581look": 840,
  "\u2581Anwendung": 841,
  "\u2581Ende": 842,
  "\u2581offer": 843,
  "\u2581Ziel": 844,
  "\u2581m\u00f6glich": 845,
  "\u2581mm": 846,
  "\u2581group": 847,
  "\u2581together": 848,
  "\u2581More": 849,
  "\u2581kommen": 850,
  "\u2581\u2018": 851,
  "\u2581taken": 852,
  "\u2581air": 853,
  "\u2581Als": 854,
  "\u2581Bar": 855,
  "\u2581Rates": 856,
  "\u25812018": 857,
  "\u2581training": 858,
  "\u2581really": 859,
  "\u2581account": 860,
  "\u2581einige": 861,
  "\u2581hotel": 862,
  "\u25812019": 863,
  "\u2581China": 864,
  "and": 865,
  "\u2581change": 866,
  "\u2581experience": 867,
  "\u2581better": 868,
  "\u2581house": 869,
  "\u2581access": 870,
  "zu": 871,
  "\u2581unseren": 872,
  "\u2581areas": 873,
  "\u2581certain": 874,
  "\u2581Our": 875,
  "\u2581control": 876,
  "no": 877,
  "\u2581person": 878,
  "\u2581Al": 879,
  "\u2581Le": 880,
  "\u2581industry": 881,
  "\u258122": 882,
  "\u2581II": 883,
  "\u2581total": 884,
  "\u2581protection": 885,
  "ta": 886,
  "19": 887,
  "\u2581Un": 888,
  "\u2581website": 889,
  "\u2581Unter": 890,
  "\u2581question": 891,
  "\u2581old": 892,
  "\u2581x": 893,
  "6": 894,
  "\u2581list": 895,
  "\u2581non": 896,
  "\u2581These": 897,
  "\u2581International": 898,
  "\u2581systems": 899,
  "\u2581nichts": 900,
  "\u2581given": 901,
  "\u2581Ihren": 902,
  "\u2581Information": 903,
  "ul": 904,
  "\u2581page": 905,
  "ungen": 906,
  "\u2581Grund": 907,
  "\u2581light": 908,
  "\u2581>": 909,
  "\u2581third": 910,
  "\u00e9": 911,
  "ster": 912,
  "\u25812010": 913,
  "\u2581weitere": 914,
  "\u2581put": 915,
  "\u2581gehen": 916,
  "\u2581main": 917,
  "\u00ae": 918,
  "\u2581something": 919,
  "ke": 920,
  "\u2581m\u00f6chte": 921,
  "\u2581hin": 922,
  "da": 923,
  "\u2581results": 924,
  "8": 925,
  "\u2581local": 926,
  "ka": 927,
  "\u2581activities": 928,
  "\u2581wirklich": 929,
  "\u2581August": 930,
  "EU": 931,
  "\u2581Online": 932,
  "\u2581Lage": 933,
  "\u2581verschiedenen": 934,
  "ber": 935,
  "\u2581Contact": 936,
  "\u2581hast": 937,
  "\u25812014": 938,
  "\u2581basis": 939,
  "\u25812013": 940,
  "\u2581World": 941,
  "\u2581away": 942,
  "\u2581until": 943,
  "\u25812012": 944,
  "\u2581geben": 945,
  "ler": 946,
  "os": 947,
  "\u2581Dies": 948,
  "10": 949,
  "\u2581today": 950,
  "\u25812009": 951,
  "\u2581Group": 952,
  "\u2581nun": 953,
  "lichen": 954,
  "di": 955,
  "\u2581few": 956,
  "\u2581San": 957,
  "\u2581See": 958,
  "\u2581Mal": 959,
  "ro": 960,
  "\u2581things": 961,
  "\u2581t": 962,
  "\u2581wollen": 963,
  "\u2581letzten": 964,
  "\u2581Sicherheit": 965,
  "\u2581law": 966,
  "\u2581site": 967,
  "\u2581However": 968,
  "\u2581Nicht": 969,
  "\u2581worden": 970,
  "\u2581cm": 971,
  "\u2581innerhalb": 972,
  "\u2581Form": 973,
  "\u2581Hier": 974,
  "j": 975,
  "\u258160": 976,
  "\u2581USA": 977,
  "\u2581US": 978,
  "\u2581less": 979,
  "\u2581fact": 980,
  "\u2581common": 981,
  "am": 982,
  "\u2581trade": 983,
  "\u2581z": 984,
  "\u2581Energie": 985,
  "\u2581Search": 986,
  "\u2581Fragen": 987,
  "\u2581general": 988,
  "ra": 989,
  "\u2581ja": 990,
  "\u2581Mehr": 991,
  "\u2581design": 992,
  "\u2581interest": 993,
  "\u258123": 994,
  "\u2581Weg": 995,
  "\u2581Website": 996,
  "\u2581present": 997,
  "\u2581Europ\u00e4ische": 998,
  "\u2581contact": 999,
  "\u2581darauf": 1000,
  "\u2581allem": 1001,
  "\u2581One": 1002,
  "\u25812011": 1003,
  "\u2581located": 1004,
  "\u2581Zusammenarbeit": 1005,
  "mm": 1006,
  "\u2581May": 1007,
  "30": 1008,
  "7": 1009,
  "\u25812007": 1010,
  "\u2581dabei": 1011,
  "mann": 1012,
  "ive": 1013,
  "\u2581show": 1014,
  "\u2581above": 1015,
  "\u2581k\u00f6nnte": 1016,
  "chen": 1017,
  "\u2581Markt": 1018,
  "\u2581Bericht": 1019,
  "\u2581value": 1020,
  "\u2581welche": 1021,
  "\u2581mein": 1022,
  "\u2581ensure": 1023,
  "\u2581love": 1024,
  "\u2581management": 1025,
  "\u2581gro\u00dfe": 1026,
  "ine": 1027,
  "\u2581w\u00e4re": 1028,
  "\u2581bitte": 1029,
  "\u2581private": 1030,
  "\u2581Spiel": 1031,
  "me": 1032,
  "\u2581rights": 1033,
  "\u2581After": 1034,
  "\u2581kommt": 1035,
  "\u2581Car": 1036,
  "\u2581c": 1037,
  "\u2581seinem": 1038,
  "\u2581Namen": 1039,
  "ir": 1040,
  "\u2581Ihrem": 1041,
  "\u2581never": 1042,
  "li": 1043,
  "\u258128": 1044,
  "\u2581erste": 1045,
  "\u2581verwendet": 1046,
  "ness": 1047,
  "\u2581Google": 1048,
  "\u2581body": 1049,
  "\u2581Free": 1050,
  "\u2581sei": 1051,
  "\u2581Ort": 1052,
  "\u2581gro\u00dfen": 1053,
  "Mail": 1054,
  "\u2581aller": 1055,
  "age": 1056,
  "\u2581Well": 1057,
  "\u2581prices": 1058,
  "\u2581Beispiel": 1059,
  "\u2581play": 1060,
  "\u2581various": 1061,
  "\u2581steht": 1062,
  "\u2581technology": 1063,
  "\u2581programme": 1064,
  "ze": 1065,
  "\u2581whole": 1066,
  "\u2581companies": 1067,
  "\u2581Bild": 1068,
  "\u25812000": 1069,
  "ja": 1070,
  "\u2581Details": 1071,
  "\u2581Hilfe": 1072,
  "\u2581sagte": 1073,
  "\u2581fast": 1074,
  "\u2581Frauen": 1075,
  "+": 1076,
  "ling": 1077,
  "\u2581News": 1078,
  "\u2581Region": 1079,
  "\u258126": 1080,
  "\u2581least": 1081,
  "\u2581entfernt": 1082,
  "\u2581why": 1083,
  "\u2581accordance": 1084,
  "ant": 1085,
  "\u2581current": 1086,
  "\u2581Flughafen": 1087,
  "\u2581December": 1088,
  "\u2581davon": 1089,
  "\u2581night": 1090,
  "20": 1091,
  "ierung": 1092,
  "\u25812017": 1093,
  "ca": 1094,
  "\u2581Auch": 1095,
  "\u2581might": 1096,
  "isch": 1097,
  "\u2581Not": 1098,
  "\u25813.": 1099,
  "\u2581France": 1100,
  "\u2581costs": 1101,
  "per": 1102,
  "\u2581specific": 1103,
  "\u2581Oh": 1104,
  "\u2581Hand": 1105,
  "\u2581Design": 1106,
  "\u2581cooperation": 1107,
  "\u2581become": 1108,
  "\u2581field": 1109,
  "\u2581related": 1110,
  "\u2581\u00a9": 1111,
  "\u2581far": 1112,
  "\u2581etwa": 1113,
  "\u2581left": 1114,
  "\u2581daf\u00fcr": 1115,
  "\u2581Software": 1116,
  "son": 1117,
  "ian": 1118,
  "\u2581Bank": 1119,
  "go": 1120,
  "\u25812006": 1121,
  "\u2581Go": 1122,
  "\u2581Na": 1123,
  "\u2581From": 1124,
  "end": 1125,
  "\u2581action": 1126,
  "\u2581Now": 1127,
  "\u2581Dezember": 1128,
  "\u2581start": 1129,
  "\u2581beiden": 1130,
  "\u2581Dieses": 1131,
  "0": 1132,
  "\u2581range": 1133,
  "\u2581Unterst\u00fctzung": 1134,
  "\u2581men": 1135,
  "\u2581aid": 1136,
  "\u2581Dieser": 1137,
  "\u2581Haupt": 1138,
  "\u2581Mittel": 1139,
  "\u2581Please": 1140,
  "\u2581stehen": 1141,
  "\u2581top": 1142,
  "\u2581AG": 1143,
  "\u2581Ihrer": 1144,
  "\u25812008": 1145,
  "\u2581health": 1146,
  "\u2581several": 1147,
  "\u2581Nein": 1148,
  "ent": 1149,
  "\u2581GmbH": 1150,
  "\u2581National": 1151,
  "\u2581political": 1152,
  "\u2581months": 1153,
  "\u2581state": 1154,
  "\u2581Mann": 1155,
  "\u2581side": 1156,
  "\u2581called": 1157,
  "\u2581result": 1158,
  "\u2581transport": 1159,
  "\u2581Entscheidung": 1160,
  "\u2581Projekt": 1161,
  "50": 1162,
  "igen": 1163,
  "\u2581di": 1164,
  "\u2581problems": 1165,
  "\u2581food": 1166,
  "\u2581let": 1167,
  "au": 1168,
  "\u2581Windows": 1169,
  "\u2581ent": 1170,
  "\u2581El": 1171,
  "\u2581among": 1172,
  "\u2581Mar": 1173,
  "\u25812005": 1174,
  "\u2581General": 1175,
  "\u2581rules": 1176,
  "\u2581four": 1177,
  "\u258127": 1178,
  "\u2581content": 1179,
  "\u2581University": 1180,
  "\u2581l": 1181,
  "\u2581subject": 1182,
  "ad": 1183,
  "\u2581europ\u00e4ischen": 1184,
  "\u2581je": 1185,
  "\u25812004": 1186,
  "\u2581Umwelt": 1187,
  "\u2581ex": 1188,
  "\u2581Von": 1189,
  "\u2581women": 1190,
  "\u2581Verfahren": 1191,
  "\u2581Weise": 1192,
  "\u2581Auto": 1193,
  "\u2581L\u00e4nder": 1194,
  "ina": 1195,
  "Re": 1196,
  "\u2581Or": 1197,
  "\u2581security": 1198,
  "\u2581Bitte": 1199,
  "\u2581June": 1200,
  "\u2581terms": 1201,
  "\u2581requirements": 1202,
  "):": 1203,
  "\u2581bieten": 1204,
  "\u2581bzw": 1205,
  "\u2581decision": 1206,
  "\u2581Spiele": 1207,
  "\u2581date": 1208,
  "\u2581increase": 1209,
  "\u2581legal": 1210,
  "\u2013": 1211,
  "\u2581addition": 1212,
  "\u2581gemacht": 1213,
  "ce": 1214,
  "\u2581sector": 1215,
  "\u2581whether": 1216,
  "\u2581besteht": 1217,
  "\u2581line": 1218,
  "\u2581technical": 1219,
  "\u2581cannot": 1220,
  "\u2581sicher": 1221,
  "\u2581dort": 1222,
  "\u2581projects": 1223,
  "\u2581individual": 1224,
  "\u2581members": 1225,
  "\u2581f": 1226,
  "\u2581Wien": 1227,
  "id": 1228,
  "\u2581type": 1229,
  "\u2581single": 1230,
  "\u2581Parlament": 1231,
  "ex": 1232,
  "\u2581stay": 1233,
  "\u2581Sch": 1234,
  "\u2581Schutz": 1235,
  "\u2581position": 1236,
  "\u2581rooms": 1237,
  "\u2581tell": 1238,
  "\u2581Mai": 1239,
  "\u2581Qualit\u00e4t": 1240,
  "\u2581gegen\u00fcber": 1241,
  "\u2581regard": 1242,
  "\u2581situation": 1243,
  "\u2581werde": 1244,
  "ism": 1245,
  "\u2581Juni": 1246,
  "\u2581Nacht": 1247,
  "\u2581vier": 1248,
  "\u2581Kunst": 1249,
  "\u2581Pr\u00e4sident": 1250,
  "\u2581macht": 1251,
  "ary": 1252,
  "\u2581co": 1253,
  "\u2581THE": 1254,
  "\u2581L\u00e4ndern": 1255,
  "\u2581k": 1256,
  "\u2581needs": 1257,
  "\u00e4": 1258,
  "\u2581About": 1259,
  "\u2581games": 1260,
  "\u2581h": 1261,
  "\u2581ca": 1262,
  "\u2581Suche": 1263,
  "\u2581authorities": 1264,
  "\u2581please": 1265,
  "\u2581Don": 1266,
  "\u2581jeder": 1267,
  "\u2581etc": 1268,
  "\u2581Programm": 1269,
  "la": 1270,
  "ein": 1271,
  "\u2581Download": 1272,
  "\u2581By": 1273,
  "\u258131": 1274,
  "\u2581region": 1275,
  "lo": 1276,
  "\u2581bist": 1277,
  "ol": 1278,
  "her": 1279,
  "\u2581Natur": 1280,
  "men": 1281,
  "\u2581Name": 1282,
  "\u2581weniger": 1283,
  "mo": 1284,
  "\u2581rund": 1285,
  "\u2581befindet": 1286,
  "min": 1287,
  "\u2581Neu": 1288,
  "\u2581close": 1289,
  "\u2581March": 1290,
  "\u2581personal": 1291,
  "\u2581einmal": 1292,
  "\u2581Durch": 1293,
  "\u2581Industrie": 1294,
  "\u2581came": 1295,
  "\u2581young": 1296,
  "ti": 1297,
  "berg": 1298,
  "ik": 1299,
  "\u2581ihrem": 1300,
  "\u2581Can": 1301,
  "\u258129": 1302,
  "\u2581sollen": 1303,
  "\u2581direkt": 1304,
  "\u2581konnte": 1305,
  "ko": 1306,
  "\u2581call": 1307,
  "ak": 1308,
  "ance": 1309,
  "\u2581building": 1310,
  "\u2581Bedeutung": 1311,
  "\u2581rate": 1312,
  "\u2581often": 1313,
  "\u2581Wirtschafts": 1314,
  "\u2581Partner": 1315,
  "\u2581Geschichte": 1316,
  "\u2581due": 1317,
  "\u2581problem": 1318,
  "\u2581short": 1319,
  "art": 1320,
  "\u2581yet": 1321,
  "ige": 1322,
  "\u2581clear": 1323,
  "\u2581Tage": 1324,
  "\u2581Anzahl": 1325,
  "ate": 1326,
  "\u2581live": 1327,
  "\u2581natural": 1328,
  "\u2581Datei": 1329,
  "\u2581Bau": 1330,
  "\u2581eigenen": 1331,
  "\u2581Juli": 1332,
  "\u2581gilt": 1333,
  "90": 1334,
  "\u2581Geld": 1335,
  "\u2581Uhr": 1336,
  "\u2581material": 1337,
  "\u2581Me": 1338,
  "\u2581took": 1339,
  "ek": 1340,
  "\u2581Con": 1341,
  "\u2581Kosten": 1342,
  "\u2581Why": 1343,
  "\u2581Licht": 1344,
  "\u2581include": 1345,
  "con": 1346,
  "\u2581living": 1347,
  "\u2581Newsletter": 1348,
  "\u2581unser": 1349,
  "\u2581pre": 1350,
  "\u2581folgenden": 1351,
  "\u2581Park": 1352,
  "15": 1353,
  "\u2581Person": 1354,
  "\u2581easy": 1355,
  "\u2581besser": 1356,
  "\u2581besonders": 1357,
  "\u2581Verf\u00fcgung": 1358,
  "\u2581la": 1359,
  "\u2581according": 1360,
  "\u2581art": 1361,
  "\u2581besten": 1362,
  "40": 1363,
  "ut": 1364,
  "\u2581heart": 1365,
  "\u2581however": 1366,
  "\u2581February": 1367,
  "\u2581required": 1368,
  "\u2581known": 1369,
  "\u2581Ar": 1370,
  "\u2581Februar": 1371,
  "\u2581via": 1372,
  "\u2581January": 1373,
  "\u2581helfen": 1374,
  "heit": 1375,
  "net": 1376,
  "\u2581sea": 1377,
  "\u2581growth": 1378,
  "\u2581game": 1379,
  "\u2581s": 1380,
  "\u2581land": 1381,
  "\u2581daher": 1382,
  "\u2581Also": 1383,
  "\u2581language": 1384,
  "\u2581nie": 1385,
  "\u2581minutes": 1386,
  "\u2581City": 1387,
  "\u2581works": 1388,
  "\u2581believe": 1389,
  "\u25812002": 1390,
  "\u2581thing": 1391,
  "line": 1392,
  "EEC": 1393,
  "\u2581unserem": 1394,
  "ac": 1395,
  "\u2581Parlaments": 1396,
  "\u2581Israel": 1397,
  "\u2581money": 1398,
  "\u2581Paris": 1399,
  "see": 1400,
  "ana": 1401,
  "\u2581having": 1402,
  "\u2581M\u00f6glichkeit": 1403,
  "\u2581hours": 1404,
  "\u2581kind": 1405,
  "\u2581Preise": 1406,
  "\u2581Check": 1407,
  "\u2581Airport": 1408,
  "\u2581vielen": 1409,
  "\u2581mean": 1410,
  "Be": 1411,
  "\u2581visit": 1412,
  "\u2581N\u00e4he": 1413,
  "\u2581sowohl": 1414,
  "\u2581Umgebung": 1415,
  "\u2581House": 1416,
  "\u2581Staaten": 1417,
  "\u2581respect": 1418,
  "\u2581lot": 1419,
  "ty": 1420,
  "\u2581done": 1421,
  "\u2581nehmen": 1422,
  "sa": 1423,
  "\u2581Januar": 1424,
  "\u2581Arbeits": 1425,
  "\u2581Cookies": 1426,
  "\u2581October": 1427,
  "\u2581geh\u00f6rt": 1428,
  "\u2581education": 1429,
  "\u2581once": 1430,
  "\u2581appropriate": 1431,
  "\u2581M\u00e4rz": 1432,
  "\u2581Treaty": 1433,
  "\u2581Problem": 1434,
  "\u2581July": 1435,
  "\u2581care": 1436,
  "\u2581book": 1437,
  "\u2581referred": 1438,
  ",\"": 1439,
  "\u25812003": 1440,
  "\u2581stellen": 1441,
  "\u2581beautiful": 1442,
  "\u2581address": 1443,
  "\u2581meisten": 1444,
  "\u2581upon": 1445,
  "\u2581role": 1446,
  "\u2581Dienstleistung": 1447,
  "\u2581developed": 1448,
  "\u2581Beschreibung": 1449,
  "\u2581Ergebnisse": 1450,
  "\u2581hatten": 1451,
  "\u2581especially": 1452,
  "\u2581adopted": 1453,
  "\u2581Bewertungen": 1454,
  "\u2581original": 1455,
  "\u2581Ist": 1456,
  "\u2581modern": 1457,
  "\u2581con": 1458,
  "ies": 1459,
  "\u2581unterschiedlich": 1460,
  "\u2581environment": 1461,
  "\u2581Probleme": 1462,
  "\u2581o": 1463,
  "\u2581later": 1464,
  "\u2581Oktober": 1465,
  "\u2581Familie": 1466,
  "\u258180": 1467,
  "\u2581details": 1468,
  "\u2581others": 1469,
  "\u2581didn": 1470,
  "do": 1471,
  "\u2581request": 1472,
  "\u2581Durchf\u00fchrung": 1473,
  "\u2581cases": 1474,
  "\u2581Annex": 1475,
  "\u2581safety": 1476,
  "11": 1477,
  "\u2581hinaus": 1478,
  "\u2581size": 1479,
  "pa": 1480,
  "\u2581Millionen": 1481,
  "\u2581Show": 1482,
  "\u2581Nutzung": 1483,
  "\u2581risk": 1484,
  "\u2581Web": 1485,
  "\u2581directly": 1486,
  "ben": 1487,
  "\u2581keep": 1488,
  "\u2581relevant": 1489,
  "\u2581Rolle": 1490,
  "\u2581Film": 1491,
  "\u2581key": 1492,
  "\u2581bleiben": 1493,
  "ial": 1494,
  "\u2581age": 1495,
  "\u2581concerned": 1496,
  "\u2581Musik": 1497,
  "\u2581Zukunft": 1498,
  "\u2581dar\u00fcber": 1499,
  "\u2581team": 1500,
  "\u2581Forschungs": 1501,
  "\u2581Wo": 1502,
  "\u2581force": 1503,
  "\u2581gonna": 1504,
  "\u2581read": 1505,
  "\u2581$": 1506,
  "\u2581gerade": 1507,
  "U": 1508,
  "ungs": 1509,
  "EWG": 1510,
  "\u2581Standard": 1511,
  "\u2581Bewertung": 1512,
  "out": 1513,
  "\u2581agreement": 1514,
  "\u2581Sport": 1515,
  "\u2581government": 1516,
  "\u2581town": 1517,
  "\u2581looking": 1518,
  "\u2581Top": 1519,
  "\u2581Gesellschaft": 1520,
  "\u2581proposal": 1521,
  "aus": 1522,
  "\u2581lange": 1523,
  "\u2581software": 1524,
  "zen": 1525,
  "\u2581implementation": 1526,
  "AL": 1527,
  "\u2581making": 1528,
  "\u2581taking": 1529,
  "\u2581Gesamt": 1530,
  "\u2581doing": 1531,
  "\u2581Li": 1532,
  "12": 1533,
  "\u2581study": 1534,
  "\u2581f\u00fchren": 1535,
  "\u2581meet": 1536,
  "\u2581additional": 1537,
  "\u2581mu\u00df": 1538,
  "\u2581Herrn": 1539,
  "ium": 1540,
  "\u2581bekannt": 1541,
  "ci": 1542,
  "pe": 1543,
  "io": 1544,
  "\u2581keinen": 1545,
  "\u2581Then": 1546,
  "\u2581makes": 1547,
  "\u2581)": 1548,
  "\u2581schnell": 1549,
  "\u2581low": 1550,
  "zeit": 1551,
  "\u2581200": 1552,
  "\u2581equipment": 1553,
  "of": 1554,
  "mail": 1555,
  "\u2581major": 1556,
  "\u2581Seiten": 1557,
  "\u2581Programme": 1558,
  "\u2581below": 1559,
  "\u2581jeden": 1560,
  "\u2581Verwendung": 1561,
  "ard": 1562,
  "\u2581\u00ab": 1563,
  "\u2581kaufen": 1564,
  "\u2581plan": 1565,
  "\u2581Frankreich": 1566,
  "\u2581matter": 1567,
  "\u258190": 1568,
  "\u2581Thema": 1569,
  "\u2581questions": 1570,
  "\u2581final": 1571,
  "\u2581French": 1572,
  "\u2581Gottes": 1573,
  "25": 1574,
  "\u2581PC": 1575,
  "\u2581effect": 1576,
  "\u2581persons": 1577,
  "he": 1578,
  "\u2581u": 1579,
  "bo": 1580,
  "\u2581nature": 1581,
  "\u2581search": 1582,
  "vor": 1583,
  "9": 1584,
  "\u2581ago": 1585,
  "\u2581hoch": 1586,
  "\u2581Italy": 1587,
  "\u2581DE": 1588,
  "\u2581internationalen": 1589,
  "est": 1590,
  "16": 1591,
  "\u2581Product": 1592,
  "\u2581provides": 1593,
  "\u2581meeting": 1594,
  "\u2581feel": 1595,
  "\u2581Material": 1596,
  "\u2581Museum": 1597,
  "\u2581erreichen": 1598,
  "\u2581particularly": 1599,
  "\u2581Management": 1600,
  "\u2581Kultur": 1601,
  "\u2581stand": 1602,
  "\u2581Video": 1603,
  "\u2581school": 1604,
  "\u2581Minuten": 1605,
  "\u2581performance": 1606,
  "\u2581network": 1607,
  "haus": 1608,
  "\u2581itself": 1609,
  "\u2581treatment": 1610,
  "\u2581Forschung": 1611,
  "\u2581South": 1612,
  "\u2581big": 1613,
  "\u2581Gruppe": 1614,
  "\u2581provisions": 1615,
  "\u2581sogar": 1616,
  "\u2581Lord": 1617,
  "\u2581amount": 1618,
  "\u2581space": 1619,
  "\u2581dessen": 1620,
  "\u2581sure": 1621,
  "\u2581Dann": 1622,
  "\u2581Ent": 1623,
  "\u2581opinion": 1624,
  "\u2581folgende": 1625,
  "60": 1626,
  "\u2581Social": 1627,
  "\u2581gleich": 1628,
  "\u2581Verbindung": 1629,
  "\u2581Anhang": 1630,
  "\u2581zeigt": 1631,
  "\u2581Here": 1632,
  "die": 1633,
  "mit": 1634,
  "\u2581Zusammenhang": 1635,
  "one": 1636,
  "\u2581Air": 1637,
  "\u2581Wert": 1638,
  "\u2581solution": 1639,
  "\u2581five": 1640,
  "ator": 1641,
  "\u2581Jetzt": 1642,
  "mal": 1643,
  "\u2581complete": 1644,
  "\u2581Einsatz": 1645,
  "\u2581deine": 1646,
  "\u2581gab": 1647,
  "\u2581Sprache": 1648,
  "\u2581customers": 1649,
  "\u2581event": 1650,
  "\u2581Reise": 1651,
  "\u2581established": 1652,
  "\u2581Where": 1653,
  "\u2581Regierung": 1654,
  "\u2581CD": 1655,
  "\u2581near": 1656,
  "\u2581000": 1657,
  "\u2581weight": 1658,
  "\u2581London": 1659,
  "\u2581ever": 1660,
  "\u2581history": 1661,
  "\u2581Restaurant": 1662,
  "\u2581Let": 1663,
  "\u2581solche": 1664,
  "\u2581employment": 1665,
  "\u2581apply": 1666,
  "\u2581Wer": 1667,
  "\u2581head": 1668,
  "\u00bb": 1669,
  "\u2581Decision": 1670,
  "\u2581Start": 1671,
  "\u2581Zum": 1672,
  "\u2581included": 1673,
  "\u2581stellt": 1674,
  "80": 1675,
  "\u2581verwenden": 1676,
  "\u2581wegen": 1677,
  "An": 1678,
  "\u2581points": 1679,
  "\u2581gesagt": 1680,
  "\u2581capital": 1681,
  "op": 1682,
  "\u2581concerning": 1683,
  "form": 1684,
  "\u2581Warum": 1685,
  "\u2581music": 1686,
  "\u2581centre": 1687,
  "\u2581Platz": 1688,
  "\u2581test": 1689,
  "\u2581unterst\u00fctzt": 1690,
  "\u00fcr": 1691,
  "\u25814.": 1692,
  "\u2581created": 1693,
  "ach": 1694,
  "eu": 1695,
  "\u2581groups": 1696,
  "\u2581West": 1697,
  "\u2581Services": 1698,
  "\u2581Wi": 1699,
  "\u2581everything": 1700,
  "\u2581Mein": 1701,
  "\u2581Liste": 1702,
  "tor": 1703,
  "\u2581His": 1704,
  "\u2581Her": 1705,
  "\u2581genannten": 1706,
  "\u2581bring": 1707,
  "\u2581gute": 1708,
  "\u2581materials": 1709,
  "\u2581weit": 1710,
  "\u2581Facebook": 1711,
  "\u2581Unsere": 1712,
  "\u2581dis": 1713,
  "\u2581K\u00f6rper": 1714,
  "\u258170": 1715,
  "ting": 1716,
  "pro": 1717,
  "\u2581share": 1718,
  "qui": 1719,
  "for": 1720,
  "\u2581aufgrund": 1721,
  "\u2581create": 1722,
  "\u2581Ex": 1723,
  "\u2581bedeutet": 1724,
  "\u2581wichtig": 1725,
  "auf": 1726,
  "\u2581neu": 1727,
  "\u2581Research": 1728,
  "\u2581along": 1729,
  "tal": 1730,
  "\u2581towards": 1731,
  "\u2581parts": 1732,
  "\u2581features": 1733,
  "\u2581Data": 1734,
  "\u2581fully": 1735,
  "\u2581vielleicht": 1736,
  "\u2581held": 1737,
  "\u25812001": 1738,
  "\u2581Ko": 1739,
  "des": 1740,
  "18": 1741,
  "\u2581bed": 1742,
  "\u2581genau": 1743,
  "\u2581regional": 1744,
  "\u2581half": 1745,
  "\u2581resources": 1746,
  "\u2581series": 1747,
  "ino": 1748,
  "\u2581\u00b0": 1749,
  "\u2581nationalen": 1750,
  "\u2581average": 1751,
  "\u2581Bezug": 1752,
  "\u2581oben": 1753,
  "\u2581erst": 1754,
  "\u2581Italien": 1755,
  "\u2581Vater": 1756,
  "\u2581thus": 1757,
  "\u2581continue": 1758,
  "ating": 1759,
  "\u2581changes": 1760,
  "24": 1761,
  "\u2581h\u00e4tte": 1762,
  "\u2581events": 1763,
  "\u2581Blick": 1764,
  "\u2581goods": 1765,
  "\u2581f\u00fcnf": 1766,
  "\u2581thought": 1767,
  "\u2581Bilder": 1768,
  "so": 1769,
  "\u2581seen": 1770,
  "\u2581says": 1771,
  "\u2581fest": 1772,
  "\u2581Republic": 1773,
  "less": 1774,
  "\u2581procedure": 1775,
  "\u2581Transport": 1776,
  "lu": 1777,
  "\")": 1778,
  "\u2581Mutter": 1779,
  "Das": 1780,
  "tra": 1781,
  "\u2581knowledge": 1782,
  "\u2581Di": 1783,
  "\u2581meiner": 1784,
  "\u2581Den": 1785,
  "\u2581War": 1786,
  "\u2581Vorschlag": 1787,
  "\u2581Bedingungen": 1788,
  "ow": 1789,
  "\u2581Court": 1790,
  "\u2581Peter": 1791,
  "\u2581Po": 1792,
  "\u2581entwickelt": 1793,
  "\u2014": 1794,
  "\u2581received": 1795,
  "by": 1796,
  "\u2581Leute": 1797,
  "70": 1798,
  "\u2581Add": 1799,
  "\u2581cost": 1800,
  "\u2581Kraft": 1801,
  "\u258135": 1802,
  "ha": 1803,
  "\u2581OF": 1804,
  "\u2581Sea": 1805,
  "\u2581Ne": 1806,
  "\u2581kam": 1807,
  "\u2581Y": 1808,
  "\u2581sp\u00e4ter": 1809,
  "\u2581Patienten": 1810,
  "ger": 1811,
  "\u2581bringen": 1812,
  "les": 1813,
  "\u2581higher": 1814,
  "\u2581Familien": 1815,
  "\u2581longer": 1816,
  "\u2581Buch": 1817,
  "\u2581Mo": 1818,
  "\u2581sagt": 1819,
  "ous": 1820,
  "\u2581member": 1821,
  "\u2581Unterkunft": 1822,
  "\u2581Zur": 1823,
  "\u2581zwar": 1824,
  "\u2581went": 1825,
  "\u2581anzeigen": 1826,
  "\u2581links": 1827,
  "\u2581Team": 1828,
  "bau": 1829,
  "\u2581Stunden": 1830,
  "\u2581Prozent": 1831,
  "\u2581sent": 1832,
  "\u2581Kingdom": 1833,
  "\u2581ideal": 1834,
  "Q": 1835,
  "\u2581verf\u00fcgbar": 1836,
  "\u2581strong": 1837,
  "\u2581EN": 1838,
  "\u2581designed": 1839,
  "\u2581positive": 1840,
  "\u2581wohl": 1841,
  "\u2581John": 1842,
  "ien": 1843,
  "po": 1844,
  "\u2581global": 1845,
  "\u2581gefunden": 1846,
  "\u2581leicht": 1847,
  "\u2581responsible": 1848,
  "\u2581Grundlage": 1849,
  "\u2581issues": 1850,
  "\u2581\u00f6ffentlichen": 1851,
  "\u2581past": 1852,
  "\u2581Computer": 1853,
  "\u2581either": 1854,
  "\u2581meinen": 1855,
  "\u2581framework": 1856,
  "\u2581job": 1857,
  "\u2581customer": 1858,
  "\u2581jedem": 1859,
  "ich": 1860,
  "\u2581Karte": 1861,
  "\u2581v": 1862,
  "\u2581Yes": 1863,
  "\u2581Per": 1864,
  "\u2581society": 1865,
  "\u2581issue": 1866,
  "\u2581ganze": 1867,
  "\u2581zeigen": 1868,
  "\u2581map": 1869,
  "ish": 1870,
  "\u2581inter": 1871,
  "\u2581Text": 1872,
  "\u2581front": 1873,
  "\u2581enth\u00e4lt": 1874,
  "\u2581comes": 1875,
  "14": 1876,
  "\u2581High": 1877,
  "\u00e4r": 1878,
  "\u2581Mio": 1879,
  "\u2581considered": 1880,
  "\u2581York": 1881,
  "Ver": 1882,
  "\u2581En": 1883,
  "\u2581Behandlung": 1884,
  "tic": 1885,
  "\u2581soon": 1886,
  "\u2581places": 1887,
  "ga": 1888,
  "\u2581Wettbewerb": 1889,
  "ph": 1890,
  "ative": 1891,
  "\u2581cookies": 1892,
  "\u2581Plan": 1893,
  "\u2581Bio": 1894,
  "\u2581Gebiet": 1895,
  "\u2581nutzen": 1896,
  "\u2581rental": 1897,
  "35": 1898,
  "21": 1899,
  "\u2581Raum": 1900,
  "\u2581reviews": 1901,
  "\u2581arbeiten": 1902,
  "\u2581ECU": 1903,
  "ft": 1904,
  "\u2581Of": 1905,
  "\u2581institutions": 1906,
  "\u2581kleine": 1907,
  "13": 1908,
  "\u2581Liebe": 1909,
  "\u2581program": 1910,
  "\u2581verschiedene": 1911,
  "\u2581Login": 1912,
  "\u2581Just": 1913,
  "\u2581user": 1914,
  "\u2581week": 1915,
  "\u2581500": 1916,
  "\u2581try": 1917,
  "\u2581early": 1918,
  "\u2581Nur": 1919,
  "va": 1920,
  "\u2581k\u00f6nnten": 1921,
  "\u2581ebenfalls": 1922,
  "ier": 1923,
  "\u2581Wirtschaft": 1924,
  "\u2581kleinen": 1925,
  "\u2581Jahres": 1926,
  "\u2581L\u00f6sung": 1927,
  "we": 1928,
  "\u2581tax": 1929,
  "\u2581true": 1930,
  "ni": 1931,
  "\u2581sub": 1932,
  "\u2581Zugang": 1933,
  "@": 1934,
  "\u2581maximum": 1935,
  "\u2581durchgef\u00fchrt": 1936,
  "\u2581indem": 1937,
  "if": 1938,
  "\u2581choose": 1939,
  "\u2581ask": 1940,
  "\u2581standard": 1941,
  "\u2581reason": 1942,
  "fer": 1943,
  "\u2581version": 1944,
  "\u258132": 1945,
  "\u2581Angaben": 1946,
  "system": 1947,
  "nd": 1948,
  "\u2581nothing": 1949,
  "\u2581model": 1950,
  "\u2581added": 1951,
  "\u2581Produktion": 1952,
  "\u2581erforderlich": 1953,
  "\u2581anti": 1954,
  "\u2581themselves": 1955,
  "\u2581receive": 1956,
  "\u2581Browser": 1957,
  "\u25811999": 1958,
  "\u2581m\u00f6chten": 1959,
  "\u2581Lebens": 1960,
  "vo": 1961,
  "\u2581almost": 1962,
  "\u2581applications": 1963,
  "ER": 1964,
  "\u2581won": 1965,
  "\u2581Weitere": 1966,
  "\u2581travel": 1967,
  "31": 1968,
  "IT": 1969,
  "\u2581send": 1970,
  "los": 1971,
  "\u2581industrial": 1972,
  "\u2581n\u00e4chsten": 1973,
  "tro": 1974,
  "Fi": 1975,
  "\u2581enough": 1976,
  "\u2581exchange": 1977,
  "\u2581Zahl": 1978,
  "mer": 1979,
  "\u2581reach": 1980,
  "\u2581jede": 1981,
  "\u2581Christ": 1982,
  "\u2581mehrere": 1983,
  "\u2581facilities": 1984,
  "\u2581Support": 1985,
  "\u2581Unternehmens": 1986,
  "\u2581Read": 1987,
  "\u2581mind": 1988,
  "\u2581Spain": 1989,
  "ated": 1990,
  "\u2581wollte": 1991,
  "000": 1992,
  "\u2581property": 1993,
  "ell": 1994,
  "\u2581hard": 1995,
  "\u2581Falun": 1996,
  "\u2581levels": 1997,
  "\u2581death": 1998,
  "\u2581Back": 1999,
  "\u2581direct": 2000,
  "\u2581Hersteller": 2001,
  "\u2581active": 2002,
  "\u2581video": 2003,
  "\u2581machine": 2004,
  "\u2581words": 2005,
  "\u2581media": 2006,
  "\u2581Since": 2007,
  "\u2581existing": 2008,
  "\u2581Ebene": 2009,
  "\u2581Meine": 2010,
  "\u2581Q": 2011,
  "\u2581enthalten": 2012,
  "\u2581construction": 2013,
  ");": 2014,
  "45": 2015,
  "\u2581liegen": 2016,
  "ang": 2017,
  "17": 2018,
  "\u2581halten": 2019,
  "\u2581Informations": 2020,
  "che": 2021,
  "\u2581daran": 2022,
  "\u2581Paul": 2023,
  "\u2581standards": 2024,
  "\u2581files": 2025,
  "\u2581en": 2026,
  "\u2581Wind": 2027,
  "\u2581Shop": 2028,
  "ise": 2029,
  "\u2581post": 2030,
  "\u2581Com": 2031,
  "\u2581Description": 2032,
  "\u2581turn": 2033,
  "\u2581effective": 2034,
  "\u2581American": 2035,
  "ES": 2036,
  "lin": 2037,
  "\u2581During": 2038,
  "\u2581Sa": 2039,
  "\u2581suchen": 2040,
  "\u2581Price": 2041,
  "\u2581Universit\u00e4t": 2042,
  "\u2581F\u00f6rderung": 2043,
  "\u2581Jo": 2044,
  "schutz": 2045,
  "\u2581Themen": 2046,
  "\u2581takes": 2047,
  "\u2581leave": 2048,
  "\u2581road": 2049,
  "\u2581Fa": 2050,
  "\u2581Board": 2051,
  "\u2581(1)": 2052,
  "\u2581pay": 2053,
  "\u2581Mitglieder": 2054,
  "\u2581black": 2055,
  "\u2581bar": 2056,
  "\u2581w\u00fcrden": 2057,
  "\u2581effects": 2058,
  "\u2581check": 2059,
  "\u2581outside": 2060,
  "\u2581Organisation": 2061,
  "\u2581jobs": 2062,
  "\u2581weg": 2063,
  "\u2581H\u00f6he": 2064,
  "?\"": 2065,
  "ence": 2066,
  "\u2581location": 2067,
  "\u2581parties": 2068,
  "sp": 2069,
  "\u2581IN": 2070,
  "\u2581einschlie\u00dflich": 2071,
  "\u2581Wahl": 2072,
  "\u2581review": 2073,
  "\u2581workers": 2074,
  "\u2581investment": 2075,
  "\u2581Medien": 2076,
  "01": 2077,
  "\u2581insgesamt": 2078,
  "ende": 2079,
  "\u2581Pre": 2080,
  "\u2581beste": 2081,
  "\u2581potential": 2082,
  "\u2581operation": 2083,
  "\u2581similar": 2084,
  "\u2581accommodation": 2085,
  "\u2581carried": 2086,
  "\u2581told": 2087,
  "\u2581environmental": 2088,
  "\u2581f\u00fchrt": 2089,
  "We": 2090,
  "\u2581Bad": 2091,
  "\u2581Reihe": 2092,
  "\u2581einzelnen": 2093,
  "keit": 2094,
  "\u2581=": 2095,
  "innen": 2096,
  "\u2581party": 2097,
  "\u2581anything": 2098,
  "du": 2099,
  "je": 2100,
  "\u2581drive": 2101,
  "\u2581CO": 2102,
  "ren": 2103,
  "\u2581understand": 2104,
  "\u2581r": 2105,
  "\u2581plant": 2106,
  "Der": 2107,
  "\u2581Tagen": 2108,
  "\u2581approach": 2109,
  "\u2581Tri": 2110,
  "\u2581office": 2111,
  "\u00ab": 2112,
  "\u2581currently": 2113,
  "\u2581perfect": 2114,
  "\u2581Allah": 2115,
  "\u2581published": 2116,
  "\u2581ganzen": 2117,
  "\u2581budget": 2118,
  "\u2581increased": 2119,
  "\u2581Kirche": 2120,
  "\u2581Holz": 2121,
  "\u258145": 2122,
  "\u2581leben": 2123,
  "\u2581ten": 2124,
  "28": 2125,
  "\u2581users": 2126,
  "\u2581supply": 2127,
  "raum": 2128,
  "\u2581jedes": 2129,
  "\u2581frei": 2130,
  "27": 2131,
  "\u2581table": 2132,
  "\u2581erm\u00f6glicht": 2133,
  "\u2581\u00c4nderung": 2134,
  "\u2581oft": 2135,
  "\u2581Tom": 2136,
  "rs": 2137,
  "\u2581Beh\u00f6rden": 2138,
  "\u2581statt": 2139,
  "\u2581erreicht": 2140,
  "\u2581sozialen": 2141,
  "tin": 2142,
  "tel": 2143,
  "\u2581uses": 2144,
  "\u2581IT": 2145,
  "\u2581Play": 2146,
  "\u2581w\u00e4hlen": 2147,
  "\u2581solutions": 2148,
  "\u2581Other": 2149,
  "\u2581300": 2150,
  "\u2581View": 2151,
  "\u2581Telefon": 2152,
  "\u2581Verf\u00fcgbarkeit": 2153,
  "\u2581Selbst": 2154,
  "mon": 2155,
  "99": 2156,
  "si": 2157,
  "\u2581Business": 2158,
  "\u2581return": 2159,
  "\u2581nat\u00fcrlich": 2160,
  "\u2581built": 2161,
  "\u2581partners": 2162,
  "\u2581Minister": 2163,
  "\u2581Umsetzung": 2164,
  "\u2581face": 2165,
  "\u2581Wort": 2166,
  "\u2581rather": 2167,
  "US": 2168,
  "\u2581Austria": 2169,
  "TM": 2170,
  "\u2581Gold": 2171,
  "\u2581improve": 2172,
  "26": 2173,
  "ov": 2174,
  "\u2581talk": 2175,
  "\u2581Yeah": 2176,
  "\u2581run": 2177,
  "\u2581Institute": 2178,
  "\u2581delivery": 2179,
  "00": 2180,
  "iz": 2181,
  "\u2581oil": 2182,
  "\u2581text": 2183,
  "bereich": 2184,
  "\u2581central": 2185,
  "\u2581Ma": 2186,
  "\u2581gesehen": 2187,
  "\u2581purpose": 2188,
  "\u2581white": 2189,
  "\u2581hope": 2190,
  "\u2581Version": 2191,
  "!\"": 2192,
  "it\u00e4t": 2193,
  "\u2581regions": 2194,
  "schaft": 2195,
  "\u2581analysis": 2196,
  "\u2581DER": 2197,
  "\u2581forward": 2198,
  "\u2581Are": 2199,
  "\u2581capacity": 2200,
  "\u2581Keine": 2201,
  "\u2581verf\u00fcgt": 2202,
  "\u2581Verbesserung": 2203,
  "iv": 2204,
  "\u2581North": 2205,
  "09": 2206,
  "\u2581Post": 2207,
  "\u00b0": 2208,
  "\u00f6": 2209,
  "\u2581deutlich": 2210,
  "\u2581Technologie": 2211,
  "\u2581Druck": 2212,
  "\u2581paragraph": 2213,
  "\u2581holiday": 2214,
  "\u2581Luft": 2215,
  "\u2581Auswahl": 2216,
  "\u2581III": 2217,
  "\u2581Hey": 2218,
  "\u2581Spanien": 2219,
  "\u2581Villa": 2220,
  "\u2581son": 2221,
  "\u2581competition": 2222,
  "\u2581section": 2223,
  "\u2581computer": 2224,
  "\u2581Mitglied": 2225,
  "\u2581Anti": 2226,
  "\u2581wirtschaftlich": 2227,
  "\u2581involved": 2228,
  "\u2581einigen": 2229,
  "\u2581sound": 2230,
  "ley": 2231,
  "\u2581Center": 2232,
  "\u2581Politik": 2233,
  "\u2581population": 2234,
  "\u2581wide": 2235,
  "\u2581Je": 2236,
  "\u2581Anforderungen": 2237,
  "\u2581mindestens": 2238,
  "\u2581impact": 2239,
  "\u2581activity": 2240,
  "\u2581enjoy": 2241,
  "\u2581weiteren": 2242,
  "del": 2243,
  "\u2581Kon": 2244,
  "\u2581wer": 2245,
  "ba": 2246,
  "\u2581darf": 2247,
  "\u2581Japan": 2248,
  "\u2581beginning": 2249,
  "\u2581coming": 2250,
  "23": 2251,
  "\u2581century": 2252,
  "\u2581Office": 2253,
  "\u2581sofort": 2254,
  "\u2581Ad": 2255,
  "\u2581Berg": 2256,
  "\u2581Waren": 2257,
  "\u2581Zentrum": 2258,
  "\u2581David": 2259,
  "\u2581patients": 2260,
  "\u2581K\u00fcche": 2261,
  "\u2581Auswirkungen": 2262,
  "33": 2263,
  "\u2581lead": 2264,
  "\u2581Interesse": 2265,
  "\u2581Who": 2266,
  "\u2581apartment": 2267,
  "\u2581played": 2268,
  "ismus": 2269,
  "\u2581Ka": 2270,
  "\u2581Portugal": 2271,
  "DE": 2272,
  "mar": 2273,
  "igkeit": 2274,
  "ite": 2275,
  "\u2581programmes": 2276,
  "ho": 2277,
  "\u2581connection": 2278,
  "\u2581Economic": 2279,
  "\u2581became": 2280,
  "\u2581Personal": 2281,
  "\u2581Rechts": 2282,
  "\u2581pool": 2283,
  "55": 2284,
  "que": 2285,
  "\u2581Last": 2286,
  "\u2581allow": 2287,
  "\u2581Augen": 2288,
  "\u2581film": 2289,
  "\u2581browser": 2290,
  "TV": 2291,
  "\u2581Ra": 2292,
  "\u2581processing": 2293,
  "\u2581Meer": 2294,
  "\u2581paar": 2295,
  "75": 2296,
  "\u2581Media": 2297,
  "\u2581shows": 2298,
  "\u2581Warenkorb": 2299,
  "\u2581term": 2300,
  "\u2581dein": 2301,
  "\u2581Inter": 2302,
  "\u2581Special": 2303,
  "\u2581self": 2304,
  "\u2581Erde": 2305,
  "\u25811010": 2306,
  "\u2581Sohn": 2307,
  "\u2581Angebot": 2308,
  "\u2581basic": 2309,
  "\u2581First": 2310,
  "\u2581center": 2311,
  "\u2581Development": 2312,
  "\u2581Bestimmungen": 2313,
  "sion": 2314,
  "\u2581double": 2315,
  "\u2581rest": 2316,
  "sk": 2317,
  "sbedingungen": 2318,
  "\u2581includes": 2319,
  "\u2581Get": 2320,
  "\u2581idea": 2321,
  "\u2581Ho": 2322,
  "\u2581Ziele": 2323,
  "\u2581klar": 2324,
  "ide": 2325,
  "\u2581Wochen": 2326,
  "\u2581EC": 2327,
  "\u2581Erfahrung": 2328,
  "stein": 2329,
  "\u2581Bo": 2330,
  "\u2581Woche": 2331,
  "\u2581latest": 2332,
  "\u2581legislation": 2333,
  "\u2581presented": 2334,
  "\u2581K\u00f6nigreich": 2335,
  "\u2581Republik": 2336,
  "ale": 2337,
  "\u2581Stellungnahme": 2338,
  "\u2581Gr\u00f6\u00dfe": 2339,
  "\u2581Dinge": 2340,
  "\u2581purposes": 2341,
  "\u2581bestimmte": 2342,
  "29": 2343,
  "\u2581gegeben": 2344,
  "\u2581gleichen": 2345,
  "stand": 2346,
  "\u2581mg": 2347,
  "96": 2348,
  "\u2581internal": 2349,
  "ker": 2350,
  "isation": 2351,
  "\u2581started": 2352,
  "\u2581Ro": 2353,
  "\u2581heraus": 2354,
  "\u2581communication": 2355,
  "\u2581partner": 2356,
  "oder": 2357,
  "\u2581Some": 2358,
  "\u2581suitable": 2359,
  "\u2581reasons": 2360,
  "\u2581Wetter": 2361,
  "\u2581unterst\u00fctzen": 2362,
  "\u2581Regionen": 2363,
  "ized": 2364,
  "ius": 2365,
  "\u2581step": 2366,
  "\u2581weltweit": 2367,
  "\u2581progress": 2368,
  "22": 2369,
  "\u2581pr\u00fcfen": 2370,
  "\u2581Agreement": 2371,
  "\u2581child": 2372,
  "\u2581bevor": 2373,
  "\u2581needed": 2374,
  "\u2581Basis": 2375,
  "\u2581al": 2376,
  "\u2581Mac": 2377,
  "\u2581reference": 2378,
  "\u2581Gong": 2379,
  "\u2581six": 2380,
  "\u2581sieht": 2381,
  "\u2581meinem": 2382,
  "\u2581UN": 2383,
  "\u2581staff": 2384,
  "\u2581innovative": 2385,
  "\u2581quite": 2386,
  "\u2581buy": 2387,
  "\u2581bereit": 2388,
  "\u2581Finanz": 2389,
  "burg": 2390,
  "time": 2391,
  "\u2581attention": 2392,
  "\u2581bestimmten": 2393,
  "ring": 2394,
  "\u2581vergessen": 2395,
  "isierung": 2396,
  "\u2581Mitarbeiter": 2397,
  "\u2581Seit": 2398,
  "\u2581Christian": 2399,
  "\u2581Vergleich": 2400,
  "\u2581markets": 2401,
  "\u2581floor": 2402,
  "\u2581pressure": 2403,
  "Ge": 2404,
  "\u2581practice": 2405,
  "\u2581labour": 2406,
  "\u2581(2)": 2407,
  "lan": 2408,
  "\u2581bathroom": 2409,
  "\u2581Black": 2410,
  "\u2581Sun": 2411,
  "\u2581spielen": 2412,
  "Wir": 2413,
  "\u2581Gruppen": 2414,
  "\u2581father": 2415,
  "\u2581Test": 2416,
  "\u2581context": 2417,
  "\u2581Policy": 2418,
  "\u2581digital": 2419,
  "\u2581Flug": 2420,
  "\u2581voll": 2421,
  "\u2581add": 2422,
  "\u2581Inhalt": 2423,
  "\u2581blood": 2424,
  "\u2581sch": 2425,
  "\u2581ging": 2426,
  "\u2581Hause": 2427,
  "\u2581Fotos": 2428,
  "\u2581unique": 2429,
  "\u2581speed": 2430,
  "\u2581Open": 2431,
  "\u2581brought": 2432,
  "\u2581America": 2433,
  "95": 2434,
  "\u2581B\u00fcrger": 2435,
  "\u2581Doch": 2436,
  "\u2581across": 2437,
  "\u2581zweiten": 2438,
  "platz": 2439,
  "\u2581gas": 2440,
  "\u2581stop": 2441,
  "\u2581Anfang": 2442,
  "\u25811990": 2443,
  "\u2581steel": 2444,
  "\u2581Links": 2445,
  "\u2581erfahren": 2446,
  "\u2581policies": 2447,
  "\u2581yourself": 2448,
  "Ich": 2449,
  "\u2581wenig": 2450,
  "\u2581JavaScript": 2451,
  "\u2581previous": 2452,
  "\u2581significant": 2453,
  "\u2581Vertrag": 2454,
  "\u2581wish": 2455,
  "\u2581Alter": 2456,
  "\u2581develop": 2457,
  "\u2581Au\u00dferdem": 2458,
  "ure": 2459,
  "car": 2460,
  "\u2581Dank": 2461,
  "\u2581Lo": 2462,
  "\u2581processes": 2463,
  "\u2581W\u00e4hrend": 2464,
  "\u2581kg": 2465,
  "\u25817.": 2466,
  "feld": 2467,
  "\u2581gesamten": 2468,
  "\u2581simple": 2469,
  "\u2581hab": 2470,
  "\u2581follow": 2471,
  "\u2581entire": 2472,
  "ierte": 2473,
  "\u2581Band": 2474,
  "bi": 2475,
  "\u2581earth": 2476,
  "\u2581code": 2477,
  "mp": 2478,
  "ization": 2479,
  "\u2581Antwort": 2480,
  "fa": 2481,
  "za": 2482,
  "\u2581hinter": 2483,
  "\u2581Foto": 2484,
  "\u2581Vereinigten": 2485,
  "\u2581asked": 2486,
  "\u2581professional": 2487,
  "\u2581IP": 2488,
  "\u2581click": 2489,
  "\u2581findet": 2490,
  "05": 2491,
  "\u00e1": 2492,
  "\u2581friends": 2493,
  "\u2581wanted": 2494,
  "gu": 2495,
  "\u2581Vorschriften": 2496,
  "\u2581Zeiten": 2497,
  "ven": 2498,
  "\u2581handelt": 2499,
  "ron": 2500,
  "\u2581saw": 2501,
  "\u2581Boden": 2502,
  "yl": 2503,
  "\u2581Come": 2504,
  "\u2581Products": 2505,
  "IN": 2506,
  "\u2581bekommen": 2507,
  "\u2581actually": 2508,
  "\u2581lang": 2509,
  "\u2581Centre": 2510,
  "\u2581focus": 2511,
  "\u00f6r": 2512,
  "\u2581Central": 2513,
  "\u2581image": 2514,
  "\u2581Situation": 2515,
  "\u2581gleichzeitig": 2516,
  "32": 2517,
  "\u2581neben": 2518,
  "\u2581cultural": 2519,
  "tion": 2520,
  "\u2581weiterhin": 2521,
  "\u2581G\u00e4ste": 2522,
  "\u2581Jehovah": 2523,
  "ken": 2524,
  "\u2581Blut": 2525,
  "==": 2526,
  "\u2581email": 2527,
  "\u2581Winter": 2528,
  "rat": 2529,
  "\u2581Menge": 2530,
  "\u2581importance": 2531,
  "\u2581Hamburg": 2532,
  "kon": 2533,
  "\u2581politischen": 2534,
  "\u2581values": 2535,
  "\u2581Steuer": 2536,
  "gel": 2537,
  "\u2581move": 2538,
  "\u2581App": 2539,
  "\u2581Su": 2540,
  "\u2581sales": 2541,
  "\u2581darin": 2542,
  "\u2581Ergebnis": 2543,
  "\u2581cover": 2544,
  "\u2581Party": 2545,
  "\u2581neuer": 2546,
  "\u2581gar": 2547,
  "svorschriften": 2548,
  "\u258133": 2549,
  "\u2581economy": 2550,
  "\u2581extra": 2551,
  "\u2581rates": 2552,
  "\u2581allowed": 2553,
  "\u2581transfer": 2554,
  "\u2581opportunity": 2555,
  "48": 2556,
  "\u2581Bildung": 2557,
  "tes": 2558,
  "\u2581Position": 2559,
  "\u2581greater": 2560,
  "gesellschaft": 2561,
  "druck": 2562,
  "\u2581employees": 2563,
  "49": 2564,
  "\u2581whose": 2565,
  "\u2581Verbraucher": 2566,
  "\u2581covered": 2567,
  "\u2581wind": 2568,
  "\u2581Red": 2569,
  "\u2581walk": 2570,
  "term": 2571,
  "\u2581structure": 2572,
  "\u2581Mitgliedstaat": 2573,
  "\u2581Sommer": 2574,
  "\u2581ver\u00f6ffentlicht": 2575,
  "\u2581weeks": 2576,
  "tu": 2577,
  "\u2581Italian": 2578,
  "\u2581#": 2579,
  "\u2581difficult": 2580,
  "\u2581erlaubt": 2581,
  "\u2581Fehler": 2582,
  "07": 2583,
  "\u2581methods": 2584,
  "fi": 2585,
  "\u2581mobile": 2586,
  "\u2581hei\u00dft": 2587,
  "\u2581studies": 2588,
  "\u2581Twitter": 2589,
  "\u2581function": 2590,
  "\u2581kannst": 2591,
  "\u2581ground": 2592,
  "\u2581note": 2593,
  "\u2581enter": 2594,
  "\u2581beach": 2595,
  "\u2581Verwaltung": 2596,
  "ug": 2597,
  "\u2581guests": 2598,
  "\u2581Richtung": 2599,
  "\u2581benefit": 2600,
  "\u2581applicable": 2601,
  "\u2581Nun": 2602,
  "\u2581Kategorie": 2603,
  "\u2581tragen": 2604,
  "hi": 2605,
  "ub": 2606,
  "\u2581payment": 2607,
  "\u2581Bereichen": 2608,
  "\u2581sechs": 2609,
  "\u2581geh\u00f6ren": 2610,
  "UNG": 2611,
  "plan": 2612,
  "\u2581d\u00fcrfen": 2613,
  "\u2581Gas": 2614,
  "\u2581message": 2615,
  "\u00fc": 2616,
  "\u2581Year": 2617,
  "\u2581Meter": 2618,
  "\u2581month": 2619,
  "\u2581types": 2620,
  "\u2581seems": 2621,
  "\u2581Studien": 2622,
  "\u2581l\u00e4sst": 2623,
  "entwicklung": 2624,
  "\u2581fine": 2625,
  "\u2581Anfrage": 2626,
  "\u2581sprechen": 2627,
  "\u2581Good": 2628,
  "\u2581Rechte": 2629,
  "\u2581Grad": 2630,
  "\u2581unit": 2631,
  "ong": 2632,
  "\u2581scheint": 2633,
  "\u2581Martin": 2634,
  "\u2581Schritt": 2635,
  "\u2581Sicherheits": 2636,
  "uch": 2637,
  "\u2581Aktivit\u00e4ten": 2638,
  "\u2581doesn": 2639,
  "\u2581paper": 2640,
  "\u2581wrong": 2641,
  "fe": 2642,
  "\u2581agricultural": 2643,
  "\u2581(\"": 2644,
  "\u2581equipped": 2645,
  "\u2581M\u00f6glichkeiten": 2646,
  "\u2581Stand": 2647,
  "\u2581EG": 2648,
  "AR": 2649,
  "\u2581collection": 2650,
  "\u2581Lu": 2651,
  "\u2581multi": 2652,
  "\u2581Live": 2653,
  "\u2581Landes": 2654,
  "\u2581airport": 2655,
  "bel": 2656,
  "\u2581items": 2657,
  "\u25811998": 2658,
  "\u2581Sinne": 2659,
  "\u2581leading": 2660,
  "\u2581WLAN": 2661,
  "\u2581Book": 2662,
  "\u2581station": 2663,
  "\u2581essential": 2664,
  "\u2581Chinese": 2665,
  "\u2581miles": 2666,
  "\u2581though": 2667,
  "98": 2668,
  "\u2581Barcelona": 2669,
  "\u2581befinden": 2670,
  "\u2581hear": 2671,
  "\u2581Titel": 2672,
  "ari": 2673,
  "\u2581Vorteile": 2674,
  "\u2581wobei": 2675,
  "\u2581Ca": 2676,
  "isten": 2677,
  "\u258136": 2678,
  "\u00c3": 2679,
  "Ver\u00f6ffentlichung": 2680,
  "\u2581dar": 2681,
  "\u2581brauchen": 2682,
  "ei": 2683,
  "De": 2684,
  "\u2581Chi": 2685,
  "ING": 2686,
  "\u2581los": 2687,
  "\u2581Company": 2688,
  "\u2581red": 2689,
  "\u2581kitchen": 2690,
  "\u2581Farbe": 2691,
  "\u2581lower": 2692,
  "\u2581ge\u00e4ndert": 2693,
  "\u2581produced": 2694,
  "\u2581Geist": 2695,
  "\u2581Pr\u00fcfung": 2696,
  "\u2581authority": 2697,
  "\u2581Strand": 2698,
  "\u2581insurance": 2699,
  "\u2581Code": 2700,
  "\u2581shown": 2701,
  "\u2581Link": 2702,
  "\u2581principle": 2703,
  "34": 2704,
  "\u2581Projekte": 2705,
  "tag": 2706,
  "\u2581Bev\u00f6lkerung": 2707,
  "\u2581Share": 2708,
  "36": 2709,
  "\u2581lernen": 2710,
  "\u2581Benutzer": 2711,
  "\u2581word": 2712,
  "38": 2713,
  "MA": 2714,
  "\u2581Ausbildung": 2715,
  "weg": 2716,
  "ities": 2717,
  "\u2581Handels": 2718,
  "\u2581Maria": 2719,
  "\u2581End": 2720,
  "\u2581laid": 2721,
  "\u2581Privacy": 2722,
  "\u2581Wein": 2723,
  "\u2581learn": 2724,
  "\u2581cities": 2725,
  "\u2581\u00d6sterreich": 2726,
  "\u2581150": 2727,
  "\u2581Garten": 2728,
  "\u2581behind": 2729,
  "\u2581Swiss": 2730,
  "our": 2731,
  "92": 2732,
  "\u2581Ben": 2733,
  "64": 2734,
  "St": 2735,
  "\u2581option": 2736,
  "\u2581Besch\u00e4ftigung": 2737,
  "\u2581Neben": 2738,
  "\u2581immediately": 2739,
  "ec": 2740,
  "\u2581Green": 2741,
  "\u2581Schweiz": 2742,
  "\u2581safe": 2743,
  "ical": 2744,
  "39": 2745,
  "\u2581\u00e4hnliche": 2746,
  "\u2581cross": 2747,
  "\u2581Einrichtungen": 2748,
  "\u2581students": 2749,
  "\u2581beide": 2750,
  "\u2581news": 2751,
  "\u2581decided": 2752,
  "\u2581Systems": 2753,
  "\u2581stage": 2754,
  "65": 2755,
  "\u2581procedures": 2756,
  "77": 2757,
  "\u2581operating": 2758,
  "\u2581village": 2759,
  "\u2581allein": 2760,
  "93": 2761,
  "\u25811995": 2762,
  "\u2581Ha": 2763,
  "\u2581St\u00e4dte": 2764,
  "\u2581peace": 2765,
  "ap": 2766,
  "\u2581Church": 2767,
  "\u2581sp": 2768,
  "\u2581Datenschutz": 2769,
  "\u2581weather": 2770,
  "\u2581stark": 2771,
  "\u2581\u00e4ndern": 2772,
  "\u2581bestimmt": 2773,
  "\u2581web": 2774,
  "lage": 2775,
  "\u2581Zeitpunkt": 2776,
  "\u2581100%": 2777,
  "\u2581source": 2778,
  "\u2581wichtige": 2779,
  "ful": 2780,
  "\u2581strategy": 2781,
  "37": 2782,
  "\u00fcber": 2783,
  "\u2581shop": 2784,
  "\u2581Africa": 2785,
  "\u2581Gesundheit": 2786,
  "\u2581glaube": 2787,
  "chi": 2788,
  "ip": 2789,
  "02": 2790,
  "\u2581Sal": 2791,
  "\u2581recent": 2792,
  "\u2581Port": 2793,
  "ica": 2794,
  "\u2581Monaten": 2795,
  "\u2581Mi": 2796,
  "\u2581completely": 2797,
  "vi": 2798,
  "\u2581community": 2799,
  "\u2581regarding": 2800,
  "\u2581Abend": 2801,
  "\u2581Print": 2802,
  "\u2581CHF": 2803,
  "\u2581warum": 2804,
  "\u2581East": 2805,
  "\u2581wine": 2806,
  "\u2581Dateien": 2807,
  "\u2581himself": 2808,
  "daten": 2809,
  "\u2581foreign": 2810,
  "\u2581Monate": 2811,
  "\u2581throughout": 2812,
  "\u2581gemeinsamen": 2813,
  "\u2581bleibt": 2814,
  "\u2581benefits": 2815,
  "\u2581limited": 2816,
  "\u2581sprach": 2817,
  "\u2581Val": 2818,
  "all": 2819,
  "\u2581normal": 2820,
  "\u2581Kind": 2821,
  "\u2581simply": 2822,
  "\u2581download": 2823,
  "\u2581Webseite": 2824,
  "44": 2825,
  "\u2581gave": 2826,
  "\u2581Gesch\u00e4fts": 2827,
  "\u2581entsprechenden": 2828,
  "\u2581Unser": 2829,
  "iger": 2830,
  "elle": 2831,
  "\u2581proposed": 2832,
  "ny": 2833,
  "\u2581temperature": 2834,
  "85": 2835,
  "l\u00e4": 2836,
  "\u2581Press": 2837,
  "kt": 2838,
  "AT": 2839,
  "\u2581Kopf": 2840,
  "\u2581rise": 2841,
  "\u2581moment": 2842,
  "\u2581M\u00e4nner": 2843,
  "\u2581Los": 2844,
  "ag": 2845,
  "Sch": 2846,
  "\u2581richtig": 2847,
  "werk": 2848,
  "\u2581storage": 2849,
  "\u2581wichtigsten": 2850,
  "\u2581\u0301": 2851,
  "\u2581gemeinsam": 2852,
  "\u2581resolution": 2853,
  "\u2581Innovation": 2854,
  "ou": 2855,
  "\u2581Herz": 2856,
  "Ein": 2857,
  "\u2581lesen": 2858,
  "\u2581deal": 2859,
  "\u2581OJ": 2860,
  "\u2581technischen": 2861,
  "q": 2862,
  "\u2581T\u00e4tigkeit": 2863,
  "\u2581hohe": 2864,
  "\u2581nice": 2865,
  "\u2581board": 2866,
  "\u2581extension": 2867,
  "\u2581Tour": 2868,
  "\u2581applied": 2869,
  "\u2581Lebensmittel": 2870,
  "\u2581Passwort": 2871,
  "ette": 2872,
  "sh": 2873,
  "heim": 2874,
  "\u2581Geb\u00e4ude": 2875,
  "\u2581del": 2876,
  "2,": 2877,
  "\u2581contains": 2878,
  "\u2581anderer": 2879,
  "\u25811997": 2880,
  "\u2581success": 2881,
  "vers": 2882,
  "\u2581Switzerland": 2883,
  "\u2581allows": 2884,
  "Er": 2885,
  "\u2581Ri": 2886,
  "\u2581class": 2887,
  "\u2581Pe": 2888,
  "\u2581n": 2889,
  "\u2581UK": 2890,
  "\u2581components": 2891,
  "\u2581Max": 2892,
  "ID": 2893,
  "\u2581Angebote": 2894,
  "\u2581mother": 2895,
  "\u2581stock": 2896,
  "\u2581Leistung": 2897,
  "\u2581demand": 2898,
  "\u2581K\u00f6nig": 2899,
  "ert": 2900,
  "industrie": 2901,
  "\u2581M\u00e4dchen": 2902,
  "lichkeit": 2903,
  "\u2581Beitrag": 2904,
  "\u2581Up": 2905,
  "100": 2906,
  "\u2581Gemeinde": 2907,
  "\u2581former": 2908,
  "\u2581Abschnitt": 2909,
  "ted": 2910,
  "\u2581annual": 2911,
  "\u2581Ni": 2912,
  "last": 2913,
  "\u2581Stelle": 2914,
  "\u2581seines": 2915,
  "rate": 2916,
  "\u2581Englisch": 2917,
  "\u2581Okay": 2918,
  "\u2581documents": 2919,
  "\u2581reports": 2920,
  "\u2581Stellen": 2921,
  "\u2581Main": 2922,
  "ice": 2923,
  "dy": 2924,
  "markt": 2925,
  "\u2581quickly": 2926,
  "\u2581Au": 2927,
  "\u2581\u00c4nderungen": 2928,
  "\u2581schaffen": 2929,
  "\u2581notwendig": 2930,
  "\u2581highly": 2931,
  "\u2581Find": 2932,
  "\u2581Zeichen": 2933,
  "ps": 2934,
  "43": 2935,
  "\u2581choice": 2936,
  "\u2581rein": 2937,
  "\u2581ready": 2938,
  "\u2581Hu": 2939,
  "ize": 2940,
  "08": 2941,
  "ot": 2942,
  "\u2581fire": 2943,
  "\u2581forms": 2944,
  "ON": 2945,
  "\u2581unten": 2946,
  "\u2581Forum": 2947,
  "2013": 2948,
  "\u2581Erfolg": 2949,
  "\u2581woman": 2950,
  "\u2581phone": 2951,
  "\u2581se": 2952,
  "hr": 2953,
  "ki": 2954,
  "\u2581answer": 2955,
  "\u2581Damit": 2956,
  "\u2581Arten": 2957,
  "\u2581hohen": 2958,
  "\u2581Ski": 2959,
  "\u2581Se": 2960,
  "\u2581external": 2961,
  "\u2581alone": 2962,
  "ations": 2963,
  "\u2581England": 2964,
  "\u2581popular": 2965,
  "\u2581Super": 2966,
  "technik": 2967,
  "\u2581objectives": 2968,
  "\u2581citizens": 2969,
  "\u2581gewesen": 2970,
  "\u2581loss": 2971,
  "\u2581Star": 2972,
  "\u2581morning": 2973,
  "\u2581article": 2974,
  "\u2581Arbeiten": 2975,
  "\u2581Wohnung": 2976,
  "\u2581summer": 2977,
  "EL": 2978,
  "\u2581Kontrolle": 2979,
  "gi": 2980,
  "06": 2981,
  "\u2581Ob": 2982,
  "IS": 2983,
  "\u2581Such": 2984,
  "\u2581konnten": 2985,
  "\u25811,": 2986,
  "\u2581Meinung": 2987,
  "\u2581Because": 2988,
  "\u2581trip": 2989,
  "\u2581Room": 2990,
  "\u00f6l": 2991,
  "\u2581direction": 2992,
  "\u25811996": 2993,
  "\u2581europ\u00e4ische": 2994,
  "\u2581entry": 2995,
  "So": 2996,
  "04": 2997,
  "\u2581F\u00e4llen": 2998,
  "\u258165": 2999,
  "\u2581achieve": 3000,
  "\u2581Insel": 3001,
  "\u2581internationale": 3002,
  "\u2581gives": 3003,
  "\u2581Zeitraum": 3004,
  "\u2581sense": 3005,
  "ah": 3006,
  "\u2581gemeinsame": 3007,
  "\u2581movement": 3008,
  "\u2581agree": 3009,
  "\u2581defined": 3010,
  "\u2581Anteil": 3011,
  "\u2581wood": 3012,
  "rad": 3013,
  "ierten": 3014,
  "\u2581Herstellung": 3015,
  "\u2581length": 3016,
  "schen": 3017,
  "\u258101": 3018,
  "\u2581eigene": 3019,
  "41": 3020,
  "hu": 3021,
  "ology": 3022,
  "\u2581Ireland": 3023,
  "\u2581Blog": 3024,
  "\u2581Gewicht": 3025,
  "\u2581card": 3026,
  "\u2581Day": 3027,
  "\u2581Macht": 3028,
  "\u2581daily": 3029,
  "\u2581cause": 3030,
  "\u2581Neue": 3031,
  "\u2581Produktions": 3032,
  "\u2581document": 3033,
  "47": 3034,
  "\u2581item": 3035,
  "old": 3036,
  "\u2581successful": 3037,
  "\u2581Michael": 3038,
  "\u2581Deutsche": 3039,
  "\u2581Lager": 3040,
  "zi": 3041,
  "\u2581kennen": 3042,
  "\u2581Badezimmer": 3043,
  "\u2581responsibility": 3044,
  "\u2581Mietwagen": 3045,
  "ED": 3046,
  "\u2581gelten": 3047,
  "\u2581charge": 3048,
  "wert": 3049,
  "ck": 3050,
  "\u2581relating": 3051,
  "\u2581Regel": 3052,
  "\u2581gerne": 3053,
  "buch": 3054,
  "\u2581friend": 3055,
  "\u2581beispielsweise": 3056,
  "wa": 3057,
  "\u2581info": 3058,
  "\u2581ad": 3059,
  "\u2581views": 3060,
  "\u2581Einf\u00fchrung": 3061,
  "\u2581Security": 3062,
  "\u2581Kar": 3063,
  "\u2581act": 3064,
  "act": 3065,
  "\u2581w": 3066,
  "\u2581zehn": 3067,
  "\u2581complex": 3068,
  "\u2581Radio": 3069,
  "This": 3070,
  "\u2581waste": 3071,
  "\u2581RE": 3072,
  "\u2581Tra": 3073,
  "\u2581Having": 3074,
  "jo": 3075,
  "\u2581Nord": 3076,
  "\u2581culture": 3077,
  "\u25815.": 3078,
  "\u2581Typ": 3079,
  "\u2581Handel": 3080,
  "\u2581paid": 3081,
  "IC": 3082,
  "\u2581Mrs": 3083,
  "\u2581fair": 3084,
  "\u2581Bed": 3085,
  "IP": 3086,
  "\u2581bit": 3087,
  "\u2581shopping": 3088,
  "\u2581verbessern": 3089,
  "\u2581Sign": 3090,
  "bank": 3091,
  "\u2581animals": 3092,
  "\u2581ihres": 3093,
  "\u2581entsprechend": 3094,
  "\u2581credit": 3095,
  "\u2581instruments": 3096,
  "\u2581ausgestattet": 3097,
  "\u2581bad": 3098,
  "\u2581menu": 3099,
  "\u2581alten": 3100,
  "\u2581traditional": 3101,
  "\u2581Funktion": 3102,
  "\u2581erkl\u00e4rt": 3103,
  "od": 3104,
  "\u2581elements": 3105,
  "\u2581vehicle": 3106,
  "\u2581Denn": 3107,
  "\u2581easily": 3108,
  "\u2581estate": 3109,
  "\u2581inside": 3110,
  "\u2581Urlaub": 3111,
  "\u2581Netherlands": 3112,
  "\u2581kurz": 3113,
  "\u2581guten": 3114,
  "\u2581L\u00f6sungen": 3115,
  "\u2581Prozess": 3116,
  "\u2581select": 3117,
  "ini": 3118,
  "\u2581expected": 3119,
  "\u2581festgelegt": 3120,
  "\u2581developing": 3121,
  "\u2581deshalb": 3122,
  "ible": 3123,
  "\u2581garden": 3124,
  "\u2581Haut": 3125,
  "\u2581Power": 3126,
  "org": 3127,
  "\u2581Prof": 3128,
  "\u2581excellent": 3129,
  "cm": 3130,
  "\u2581official": 3131,
  "\u2581politische": 3132,
  "\u2581surface": 3133,
  "\u2581cut": 3134,
  "\u25811992": 3135,
  "day": 3136,
  "\u2581Look": 3137,
  "\u2581Herausforderung": 3138,
  "\u2581Report": 3139,
  "1/": 3140,
  "\u2581consumption": 3141,
  "om": 3142,
  "\u258175": 3143,
  "\u2581Private": 3144,
  "\u2581parking": 3145,
  "politik": 3146,
  "\u2581commercial": 3147,
  "uk": 3148,
  "\u258138": 3149,
  "val": 3150,
  "\u2581Hoch": 3151,
  "\u2581assistance": 3152,
  "ud": 3153,
  "\u2581Wahrheit": 3154,
  "\u2581verbunden": 3155,
  "ika": 3156,
  "\u2581guarantee": 3157,
  "arbeit": 3158,
  "based": 3159,
  "RE": 3160,
  "\u2581Herzen": 3161,
  "\u2581method": 3162,
  "\u2581Hinblick": 3163,
  "ischer": 3164,
  "\u2581Jan": 3165,
  "46": 3166,
  "\u2581separate": 3167,
  "way": 3168,
  "\u2581proposals": 3169,
  "satz": 3170,
  "\u2581hotels": 3171,
  "\u2581climate": 3172,
  "\u2581okay": 3173,
  "\u2581setzen": 3174,
  "pi": 3175,
  "ins": 3176,
  "\u2581contract": 3177,
  "\u2581Tor": 3178,
  "\u2581fields": 3179,
  "test": 3180,
  "\u258134": 3181,
  "\u2581Mon": 3182,
  "88": 3183,
  "\u2581consider": 3184,
  "\u2581Startseite": 3185,
  "\u2581Saint": 3186,
  "ski": 3187,
  "\u258148": 3188,
  "unternehmen": 3189,
  "\u2581actions": 3190,
  "\u2581Bull": 3191,
  "\u2581ways": 3192,
  "\u2581assessment": 3193,
  "\u25811994": 3194,
  "\u2581remain": 3195,
  "\u2581Landwirtschaft": 3196,
  "ual": 3197,
  "\u2581Eigenschaften": 3198,
  "ham": 3199,
  "amp": 3200,
  "89": 3201,
  "9/": 3202,
  "\u2581integrated": 3203,
  "\u2581heard": 3204,
  "\u2581Versand": 3205,
  "hof": 3206,
  "Sie": 3207,
  "\u2581Events": 3208,
  "ST": 3209,
  "\u2581welcome": 3210,
  "\u2581Server": 3211,
  "stellen": 3212,
  "\u2581gestellt": 3213,
  "\u2581Analyse": 3214,
  "mi": 3215,
  "\u2581K\u00fcnstler": 3216,
  "\u2581Kindern": 3217,
  "let": 3218,
  "gang": 3219,
  "ez": 3220,
  "\u2581LED": 3221,
  "\u2581Spielen": 3222,
  "\u2581Betrieb": 3223,
  "\u2581Punkt": 3224,
  "\u2581truth": 3225,
  "pf": 3226,
  "\u2581lost": 3227,
  "\u2581written": 3228,
  "\u2581Tod": 3229,
  "ani": 3230,
  "\u2581balance": 3231,
  "\u2581sustainable": 3232,
  "\u2581Fach": 3233,
  "\u2581Maschinen": 3234,
  "\u2581opening": 3235,
  "66": 3236,
  "ri": 3237,
  "\u2581Modell": 3238,
  "\u2581Folge": 3239,
  "\u2581treffen": 3240,
  "-10": 3241,
  "\u2581debate": 3242,
  "\u2581R\u00fcck": 3243,
  "%": 3244,
  "\u2581accept": 3245,
  "\u2581Risiko": 3246,
  "\u2581efforts": 3247,
  "\u2581serious": 3248,
  "\u2581Glas": 3249,
  "\u2581Apartment": 3250,
  "\u2581Men": 3251,
  "led": 3252,
  "It": 3253,
  "\u2581Finanzierung": 3254,
  "\u2581erfolgt": 3255,
  "\u2581Presse": 3256,
  "\u2581sale": 3257,
  "\u2581verstehen": 3258,
  "\u2581meaning": 3259,
  "\u2581euro": 3260,
  "\u2581besuchen": 3261,
  "\u2581clearly": 3262,
  "\u2581medium": 3263,
  "exe": 3264,
  "\u25811993": 3265,
  "\u2581joint": 3266,
  "\u2581base": 3267,
  "\u2581Freund": 3268,
  "\u2581soziale": 3269,
  "\u2581link": 3270,
  "\u2581else": 3271,
  "\u2581saying": 3272,
  "board": 3273,
  "\u2581Himmel": 3274,
  "\u2581creation": 3275,
  "\u2581states": 3276,
  "\u2581scientific": 3277,
  "\u2581gro\u00dfer": 3278,
  "86": 3279,
  "\u2581aim": 3280,
  "\u2581gesamte": 3281,
  "\u2581glass": 3282,
  "\u2581alt": 3283,
  "Pro": 3284,
  "ys": 3285,
  "\u2581minimum": 3286,
  "\u2581device": 3287,
  "\u2581models": 3288,
  "\u2581mag": 3289,
  "\u2581Dar\u00fcber": 3290,
  "\u2581erm\u00f6glichen": 3291,
  "\u2581Convention": 3292,
  "\u2581picture": 3293,
  "ised": 3294,
  "03": 3295,
  "\u2581Verkauf": 3296,
  "tern": 3297,
  "\u2581Vi": 3298,
  "red": 3299,
  "\u2581remember": 3300,
  "\u2581Anmelden": 3301,
  "\u2581skin": 3302,
  "\u2581Zwei": 3303,
  "gar": 3304,
  "ita": 3305,
  "8/": 3306,
  "LE": 3307,
  "IA": 3308,
  "\u2581Gesundheits": 3309,
  "ep": 3310,
  "\u2581administrative": 3311,
  "\u2581Te": 3312,
  "\u2581eingesetzt": 3313,
  "\u2581decisions": 3314,
  "\u2581schreiben": 3315,
  "\u2581Har": 3316,
  "\u2581Teilen": 3317,
  "\u2581Club": 3318,
  "\u2581Weiter": 3319,
  "\u2581Only": 3320,
  "\u2581selected": 3321,
  "97": 3322,
  "\u258155": 3323,
  "\u2581criteria": 3324,
  "\u2581St\u00fcck": 3325,
  "\u2581jemand": 3326,
  "\u2581deutschen": 3327,
  "\u2581green": 3328,
  "\u2581offered": 3329,
  "\u2581medical": 3330,
  "gt": 3331,
  "zer": 3332,
  "\u00e4ng": 3333,
  "\u2581Fund": 3334,
  "\u2581met": 3335,
  "\u2581Par": 3336,
  "\u2581hair": 3337,
  "\u2581largest": 3338,
  "\u2581remove": 3339,
  "log": 3340,
  "ally": 3341,
  "ya": 3342,
  "tan": 3343,
  "port": 3344,
  "enden": 3345,
  "\u2581Most": 3346,
  "\u20ac": 3347,
  "\u2581lives": 3348,
  "\u2581overall": 3349,
  "\u2581Frankfurt": 3350,
  "sche": 3351,
  "\u2581anderem": 3352,
  "\u2581plus": 3353,
  "\u2581Jahrhundert": 3354,
  "\u2581Ger": 3355,
  "\u2581Aufenthalt": 3356,
  "\u2581Life": 3357,
  "\u2581Integration": 3358,
  "\u2581Skip": 3359,
  "\u2581happy": 3360,
  "ons": 3361,
  "\u2581Breakfast": 3362,
  "\u2581Energy": 3363,
  "\u2581Datum": 3364,
  "\u2581Sozial": 3365,
  "licher": 3366,
  "\u2581Quelle": 3367,
  "\u2581category": 3368,
  "\u2581Aufgaben": 3369,
  "\u2581providing": 3370,
  "\u2581Sonder": 3371,
  "\u2581save": 3372,
  "\u2581interested": 3373,
  "\u2581evaluation": 3374,
  "ran": 3375,
  "\u2581wife": 3376,
  "7/": 3377,
  "\u2581billion": 3378,
  "\u2581Bis": 3379,
  "\u2581White": 3380,
  "\u2581Tier": 3381,
  "\u2581Sam": 3382,
  "\u2581listed": 3383,
  "500": 3384,
  "La": 3385,
  "\u2581Log": 3386,
  "OS": 3387,
  "\u2581trans": 3388,
  "\u2581operations": 3389,
  "\u2581nimmt": 3390,
  "\u2581programs": 3391,
  "\u2581press": 3392,
  "bit": 3393,
  "fall": 3394,
  "\u2581Institut": 3395,
  "\u2581Roman": 3396,
  "\u2581Professor": 3397,
  "\u2581400": 3398,
  "can": 3399,
  "\u2581Mensch": 3400,
  "\u2581Verarbeitung": 3401,
  "2/": 3402,
  "use": 3403,
  "\u2581setzt": 3404,
  "\u2581Sub": 3405,
  "\u2581jeweiligen": 3406,
  "\u2581whom": 3407,
  "\u2581somit": 3408,
  "\u2581betreffenden": 3409,
  "\u2581hinsichtlich": 3410,
  "don": 3411,
  "\u2581Untersuchung": 3412,
  "\u258120.": 3413,
  "\u2581erstellt": 3414,
  "\u2581highest": 3415,
  "\u2581hands": 3416,
  "ries": 3417,
  "\u2581allgemeinen": 3418,
  "57": 3419,
  "\u2581famous": 3420,
  "dis": 3421,
  "sf\u00e4higkeit": 3422,
  "\u2581getting": 3423,
  "ano": 3424,
  "\u2581schwer": 3425,
  "ning": 3426,
  "\u2581ABl": 3427,
  "\u2581folgt": 3428,
  "\u2581versuchen": 3429,
  "\u2581ma": 3430,
  "\u2581Sache": 3431,
  "\u2581reduce": 3432,
  "\u2581someone": 3433,
  "\u2581getan": 3434,
  "\u2581allerdings": 3435,
  "\u2581Nummer": 3436,
  "\u2581Even": 3437,
  "\u2581Zur\u00fcck": 3438,
  "\u2581box": 3439,
  "\u2581interests": 3440,
  "56": 3441,
  "\u2581Master": 3442,
  "\u2581Part": 3443,
  "\u2581build": 3444,
  "\u2581compared": 3445,
  "-1": 3446,
  "set": 3447,
  "\u2581Sitz": 3448,
  "\u2581fight": 3449,
  "\u2581amended": 3450,
  "\u2581objective": 3451,
  "not": 3452,
  "\u2581Essen": 3453,
  "\u25818.": 3454,
  "\u2581Sir": 3455,
  "\u2581color": 3456,
  "\u2581comments": 3457,
  "\u2581\u00d6l": 3458,
  "\u2581sun": 3459,
  "67": 3460,
  "\u2581Time": 3461,
  "\u2581Installation": 3462,
  "\u2581selection": 3463,
  "\u2581Arbeitnehmer": 3464,
  "\u2581Wachstum": 3465,
  "\u2581ebenso": 3466,
  "\u2581glauben": 3467,
  "\u2581fish": 3468,
  "42": 3469,
  "\u2581genug": 3470,
  "stellung": 3471,
  "\u2581Struktur": 3472,
  "ib": 3473,
  "\u2581Mark": 3474,
  "68": 3475,
  "\u2581detailed": 3476,
  "\u2581Werk": 3477,
  "\u2581pages": 3478,
  "\u25816.": 3479,
  "\u2581<": 3480,
  "\u2581teilen": 3481,
  "\u2581zus\u00e4tzliche": 3482,
  "\u258185": 3483,
  "\u2581Kapitel": 3484,
  "\u2581password": 3485,
  "\u00ed": 3486,
  "\u2581plants": 3487,
  "\u2581vehicles": 3488,
  "\u258137": 3489,
  "ding": 3490,
  "\u2581Seine": 3491,
  "\u2581bio": 3492,
  "\u2581began": 3493,
  "\u2581Erfahrungen": 3494,
  "\u2581Besucher": 3495,
  "\u2581Buchstabe": 3496,
  "\u2581Festival": 3497,
  "\u2581dead": 3498,
  "\u2581late": 3499,
  "\u2581Therefore": 3500,
  "\u2581principles": 3501,
  "\u2581nor": 3502,
  "\u2581flat": 3503,
  "\u2581granted": 3504,
  "\u2581Beginn": 3505,
  "\u2581entwickeln": 3506,
  "ick": 3507,
  "\u2581distribution": 3508,
  "bus": 3509,
  "bra": 3510,
  "\u2581zweite": 3511,
  "\u2581Vielleicht": 3512,
  "\u2581crisis": 3513,
  "94": 3514,
  "2.": 3515,
  "\u2581watch": 3516,
  "\u2581fun": 3517,
  "\u2581civil": 3518,
  "\u2581Wissenschaft": 3519,
  "\u2581Verhandlungen": 3520,
  "\u2581church": 3521,
  "\u2581networks": 3522,
  "\u2581integration": 3523,
  "\u2581Betriebs": 3524,
  "\u2581Customer": 3525,
  "\u2581breakfast": 3526,
  "\u2581options": 3527,
  "\u2581concept": 3528,
  "\u2581Teile": 3529,
  "\u2581alternative": 3530,
  "\u2581usw": 3531,
  "lar": 3532,
  "\u2581Hi": 3533,
  "\u2581einzige": 3534,
  "\u2581Aufgabe": 3535,
  "IG": 3536,
  "\u2581Dusche": 3537,
  "\u2581opportunities": 3538,
  "54": 3539,
  "\u2581Gu": 3540,
  "\u2581Greece": 3541,
  "\u2581letzte": 3542,
  "\u2581installed": 3543,
  "ix": 3544,
  "\u2581Stein": 3545,
  "wie": 3546,
  "\u2581establishing": 3547,
  "ile": 3548,
  "\u2581nahm": 3549,
  "\u2581technologies": 3550,
  "\u2581equal": 3551,
  "\u2581freedom": 3552,
  "You": 3553,
  "\u2581Santa": 3554,
  "\u2581season": 3555,
  "\u2581Restaurants": 3556,
  "\u2581lack": 3557,
  "\u2581contribution": 3558,
  "\u2581monitoring": 3559,
  "OR": 3560,
  "\u2581Eltern": 3561,
  "\u2581Volk": 3562,
  "\u2581solchen": 3563,
  "dem": 3564,
  "\u2581images": 3565,
  "\u2581h\u00e4ufig": 3566,
  "cha": 3567,
  "\u2581buchen": 3568,
  "\u2581gebracht": 3569,
  "\u2581Ru": 3570,
  "\u2581eyes": 3571,
  "\u2581Spa": 3572,
  "han": 3573,
  "\u2581Mag": 3574,
  "\u2581Van": 3575,
  "\u2581ones": 3576,
  "\u2581setting": 3577,
  "\u2581Einzel": 3578,
  "\u2581animal": 3579,
  "\u2581au\u00dfer": 3580,
  "\u2581competent": 3581,
  "ji": 3582,
  "\u2581st": 3583,
  "\u2581style": 3584,
  "\u2581Thomas": 3585,
  "\u2581led": 3586,
  "\u2581Ober": 3587,
  "\u2581n\u00e4mlich": 3588,
  "\u2581Freunde": 3589,
  "\u2581born": 3590,
  "\u2581Mitte": 3591,
  "\u2581Staats": 3592,
  "\u2581Haushalts": 3593,
  "\u2581Number": 3594,
  "\u2581intended": 3595,
  "\u2581bodies": 3596,
  "\u2581Fr\u00fchst\u00fcck": 3597,
  "km": 3598,
  "\u2581Wirkung": 3599,
  "\u2581falls": 3600,
  "\u2581Farben": 3601,
  "\u2581steps": 3602,
  "51": 3603,
  "\u2581tool": 3604,
  "nes": 3605,
  "\u2581worked": 3606,
  "\u2581According": 3607,
  "\u2581Pass": 3608,
  "\u2581regards": 3609,
  "enz": 3610,
  "ura": 3611,
  "over": 3612,
  "\u2581Wissen": 3613,
  "\u2581Anbieter": 3614,
  "\u2581exhibition": 3615,
  "\u2581au\u00dferdem": 3616,
  "\u2581Entfernung": 3617,
  "vis": 3618,
  "\u2581Spanish": 3619,
  "\u2581Dienst": 3620,
  "ok": 3621,
  "\u2581requests": 3622,
  "\u2581Multi": 3623,
  "\u2581Russian": 3624,
  "\u2581Station": 3625,
  "service": 3626,
  "\u2581funds": 3627,
  "ola": 3628,
  "\u2581Dis": 3629,
  "87": 3630,
  "Es": 3631,
  "\u2581opened": 3632,
  "\u2581properties": 3633,
  "int": 3634,
  "\u2581Homepage": 3635,
  "\u2581speak": 3636,
  "kel": 3637,
  "CO": 3638,
  "\u2581erster": 3639,
  "side": 3640,
  "\u2581Date": 3641,
  "\u2581Gen": 3642,
  "\u2581vorhanden": 3643,
  "\u2581Nachrichten": 3644,
  "\u2581Funktionen": 3645,
  "\u2581Gro\u00df": 3646,
  "\u2581geeignet": 3647,
  "\u2581Grand": 3648,
  "\u2581Gi": 3649,
  "\u2581thanks": 3650,
  "kommen": 3651,
  "\u2581Feld": 3652,
  "preis": 3653,
  "\u2581Tochter": 3654,
  "\u2581Daher": 3655,
  "\u2581Job": 3656,
  "6/": 3657,
  "\u2581Erzeugnisse": 3658,
  "anz": 3659,
  "\u2581bringt": 3660,
  "sec": 3661,
  "ans": 3662,
  "\u2581destination": 3663,
  "\u2581everyone": 3664,
  "\u2581Verkehrs": 3665,
  "\u2581Health": 3666,
  "\u2581sign": 3667,
  "mittel": 3668,
  "\u2581agreements": 3669,
  "2)": 3670,
  "\u2581Impressum": 3671,
  "par": 3672,
  "\u2581Hans": 3673,
  "\u2581Beziehungen": 3674,
  "\u2581interesting": 3675,
  "\u2581Madrid": 3676,
  "\u2581happened": 3677,
  "\u2581Best": 3678,
  "\u2581Studie": 3679,
  "\u2581zust\u00e4ndigen": 3680,
  "\u2581Email": 3681,
  "\u2581v\u00f6llig": 3682,
  "\u2581lines": 3683,
  "\u2581Moment": 3684,
  "hin": 3685,
  "\u2581efficiency": 3686,
  "\u2581probably": 3687,
  "\u2581Blumen": 3688,
  "\u2581Use": 3689,
  "\u2581Info": 3690,
  "ru": 3691,
  "\u2581prevent": 3692,
  "\u2581trying": 3693,
  "\u2581regular": 3694,
  "\u2581Availability": 3695,
  "\u2581geworden": 3696,
  "\u2581Bi": 3697,
  "\u2581erf\u00fcllt": 3698,
  "\u258142": 3699,
  "\u2581Dabei": 3700,
  "SA": 3701,
  "\u2581Vienna": 3702,
  "To": 3703,
  "\u2581People": 3704,
  "\u2581restaurant": 3705,
  "\u2581photo": 3706,
  "\u2581Schl\u00fcssel": 3707,
  "gruppe": 3708,
  "\u2581PDF": 3709,
  "2014": 3710,
  "ella": 3711,
  "shop": 3712,
  "\u2581associated": 3713,
  "69": 3714,
  "bach": 3715,
  "ros": 3716,
  "\u2581Bre": 3717,
  "\u2581Leistungen": 3718,
  "\u2581Sp": 3719,
  "\u2581sectors": 3720,
  "\u2581(1": 3721,
  "year": 3722,
  "\u2581tut": 3723,
  "\u2581app": 3724,
  "\u2581Verantwortung": 3725,
  "\u2581Bus": 3726,
  "\u2581Marken": 3727,
  "FR": 3728,
  "\u2581bank": 3729,
  "\u2581spielte": 3730,
  "tz": 3731,
  "\u2581enable": 3732,
  "2009": 3733,
  "band": 3734,
  "\u2581gold": 3735,
  "\u2581USD": 3736,
  "\u2581reached": 3737,
  "recht": 3738,
  "59": 3739,
  "\u2581nahe": 3740,
  "\u2581jeweils": 3741,
  "bild": 3742,
  "\u2581Rest": 3743,
  "\u2581combination": 3744,
  "76": 3745,
  "\u2581visitors": 3746,
  "\u2581Technology": 3747,
  "\u2581story": 3748,
  "\u2581Kampf": 3749,
  "ship": 3750,
  "\u2581Ta": 3751,
  "$": 3752,
  "\u2581ml": 3753,
  "\u2581expenditure": 3754,
  "\u2581empfehlen": 3755,
  "\u2581aspects": 3756,
  "f\u00fchrung": 3757,
  "off": 3758,
  "\u2581Ihres": 3759,
  "\u2581Ordnung": 3760,
  "\u2581mentioned": 3761,
  "\u2581gr\u00f6\u00dften": 3762,
  "MP": 3763,
  "\u2581island": 3764,
  "\u2581AND": 3765,
  "\u2581Stra\u00dfe": 3766,
  "SE": 3767,
  "\u2581VAT": 3768,
  "\u2581Ansicht": 3769,
  "\u2581south": 3770,
  "material": 3771,
  "\u2581planning": 3772,
  "\u2581King": 3773,
  "\u2581Vo": 3774,
  "IL": 3775,
  "\u2581!": 3776,
  "\u2581pass": 3777,
  "\u2581measure": 3778,
  "\u2581Konferenz": 3779,
  "\u2581super": 3780,
  "\u2581flight": 3781,
  "\u2581agreed": 3782,
  "\u2581hold": 3783,
  "\u2581evening": 3784,
  "\u2581\u00f6ffentliche": 3785,
  "\u2581Besuch": 3786,
  "\u258119.": 3787,
  "-2": 3788,
  "\u2581species": 3789,
  "\u2581Cor": 3790,
  "\u25811980": 3791,
  "\u2581genannt": 3792,
  "\u2581vote": 3793,
  "ET": 3794,
  "hand": 3795,
  "\u2581Pen": 3796,
  "\u2581gew\u00e4hrleisten": 3797,
  "\u2581Schlafzimmer": 3798,
  "\u2581port": 3799,
  "\u2581Photo": 3800,
  "\u2581Kommentare": 3801,
  "\u2581behalf": 3802,
  "spolitik": 3803,
  "\u2581relations": 3804,
  "\u2581independent": 3805,
  "\u2581Global": 3806,
  "\u2581completed": 3807,
  "\u2581Rechnung": 3808,
  "\u2581Jobs": 3809,
  "\u2581sch\u00f6n": 3810,
  "\u2581Brand": 3811,
  "siehe": 3812,
  "\u2581increasing": 3813,
  "\u2581M\u00fcnchen": 3814,
  "\u2581Gar": 3815,
  "box": 3816,
  "\u2581tools": 3817,
  "sur": 3818,
  "rn": 3819,
  "\u2581verantwortlich": 3820,
  "\u2581units": 3821,
  "\u2581Nationen": 3822,
  "\u2581IV": 3823,
  "tik": 3824,
  "\u2581passiert": 3825,
  "58": 3826,
  "\u2581Shipping": 3827,
  "kraft": 3828,
  "\u25811991": 3829,
  "nt": 3830,
  "\u2581Android": 3831,
  "\u2581Original": 3832,
  "\u2581fallen": 3833,
  "\u2581dadurch": 3834,
  "\u2581Ton": 3835,
  "\u2581Ausschuss": 3836,
  "\u2581Total": 3837,
  "\u2581Ausdruck": 3838,
  "len": 3839,
  "\u2581reduction": 3840,
  "\u2581recommend": 3841,
  "\u2581Island": 3842,
  "\u258139": 3843,
  "\u2581phase": 3844,
  "\u2581Russia": 3845,
  "\u2581fall": 3846,
  "\u2581advance": 3847,
  "\u2581shipping": 3848,
  "\u2581Federal": 3849,
  "\u2581booking": 3850,
  "\u2581Rock": 3851,
  "\u2581aufgenommen": 3852,
  "78": 3853,
  "RI": 3854,
  "71": 3855,
  "\u2581Tages": 3856,
  "\u2581door": 3857,
  "\u2581Strategie": 3858,
  "\u2581participation": 3859,
  "\u2581ha": 3860,
  "\u2581Organisationen": 3861,
  "\u2581Music": 3862,
  "\u2581gen": 3863,
  "ai": 3864,
  "\u2581Stahl": 3865,
  "\u2581pictures": 3866,
  "\u2581fishing": 3867,
  "\u2581devices": 3868,
  "Mo": 3869,
  "\u2581achieved": 3870,
  "\u2581income": 3871,
  "sis": 3872,
  "\u2581recht": 3873,
  "ue": 3874,
  "\u2581technische": 3875,
  "\u2581Konto": 3876,
  "\u2581blue": 3877,
  "\u2581Umfang": 3878,
  "\u2581Ressourcen": 3879,
  "\u2581remains": 3880,
  "5/": 3881,
  "\u2581hot": 3882,
  "\u2581Rom": 3883,
  "\u2581description": 3884,
  "\u2581spirit": 3885,
  "\u2581Klimaanlage": 3886,
  "\u2581Digital": 3887,
  "\u2581Ser": 3888,
  "\u2581promote": 3889,
  "\u2581unseres": 3890,
  "\u2581Rad": 3891,
  "\u2581Set": 3892,
  "\u2581Association": 3893,
  "cy": 3894,
  "\u2581infrastructure": 3895,
  "AS": 3896,
  "\u2581Fu\u00df": 3897,
  "\u2581Veranstaltungen": 3898,
  "DA": 3899,
  "\u2581distance": 3900,
  "lic": 3901,
  "\u2581followed": 3902,
  "\u2581wider": 3903,
  "\u2581Close": 3904,
  "\u2581Games": 3905,
  "\u2581School": 3906,
  "\u2581Einige": 3907,
  "\u2581Motor": 3908,
  "\u2581Klima": 3909,
  "\u2581prepared": 3910,
  "\u2581Des": 3911,
  "\u2581(3)": 3912,
  "\u2581percent": 3913,
  "\u2581automatically": 3914,
  "tische": 3915,
  "\u2581photos": 3916,
  "\u2581f\u00f6rdern": 3917,
  "zahl": 3918,
  "\u2581conference": 3919,
  "\u2581innovation": 3920,
  "\u2581Abkommen": 3921,
  "\u2581erkennen": 3922,
  "\u2581extent": 3923,
  "\u2581evidence": 3924,
  "\u2581genommen": 3925,
  "\u2581updates": 3926,
  "He": 3927,
  "\u2581Official": 3928,
  "\u2581follows": 3929,
  "\u2581erwartet": 3930,
  "\u2581relationship": 3931,
  "\u2581Instrument": 3932,
  "\u2581Firma": 3933,
  "\u2581performed": 3934,
  "stoff": 3935,
  "\u2581Gr\u00fcnde": 3936,
  "\u2581starting": 3937,
  "\u2581gro\u00df": 3938,
  "ju": 3939,
  "\u2581===": 3940,
  "str": 3941,
  "\u2581Amsterdam": 3942,
  "app": 3943,
  "\u2581Anlage": 3944,
  "informationen": 3945,
  "\u2581Vertreter": 3946,
  "\u2581Real": 3947,
  "\u2581(19": 3948,
  "\u2581besondere": 3949,
  "\u2581possibility": 3950,
  "ath": 3951,
  "\u2581status": 3952,
  "light": 3953,
  "\u2581automatisch": 3954,
  "\u2581carry": 3955,
  "\u2581Ausgaben": 3956,
  "\u2581Act": 3957,
  "\u2581Regional": 3958,
  "\u2581Government": 3959,
  "\u2581goes": 3960,
  "\u2581electronic": 3961,
  "\u2581condition": 3962,
  "\u2581hour": 3963,
  "\u2581Journal": 3964,
  "\u2581Genehmigung": 3965,
  "\u2581brand": 3966,
  "\u2581Messe": 3967,
  "\u2581le": 3968,
  "part": 3969,
  "\u2581likely": 3970,
  "Le": 3971,
  "\u2581mountain": 3972,
  "3/": 3973,
  "\u2581Zustand": 3974,
  "\u2581Min": 3975,
  "\u2581British": 3976,
  "79": 3977,
  "\u2581verf\u00fcgen": 3978,
  "\u2581wait": 3979,
  "\u2581volume": 3980,
  "\u2581neues": 3981,
  "\u2581Strom": 3982,
  "teil": 3983,
  "\u2581entspricht": 3984,
  "\u2581tats\u00e4chlich": 3985,
  "\u2581Col": 3986,
  "\u2581variety": 3987,
  "\u2581reduced": 3988,
  "\u2581require": 3989,
  "stra\u00dfe": 3990,
  "\u2581provision": 3991,
  "\u2581Wald": 3992,
  "\u2581Morgen": 3993,
  "\u2581While": 3994,
  "\u2581Zweck": 3995,
  "\u2581derzeit": 3996,
  "\u2581Ger\u00e4te": 3997,
  "\u2581darum": 3998,
  "\u2581negative": 3999,
  "\u2581chance": 4000,
  "\u2581Director": 4001,
  "-4": 4002,
  "\u2581Schule": 4003,
  "\u2581arbeitet": 4004,
  "\u2581Apartments": 4005,
  "are": 4006,
  "\u2581marketing": 4007,
  "\u258144": 4008,
  "\u2581Trade": 4009,
  "\u2581Falls": 4010,
  "ob": 4011,
  "\u2581eigentlich": 4012,
  "\u2581release": 4013,
  "TS": 4014,
  "\u2581path": 4015,
  "\u2581usually": 4016,
  "tech": 4017,
  "\u2581approved": 4018,
  "\u2581Kombination": 4019,
  "rie": 4020,
  "\u2581round": 4021,
  "\u2581net": 4022,
  "\u2581Regelung": 4023,
  "unter": 4024,
  "\u2581B\u00fcro": 4025,
  "\u2581Source": 4026,
  "\u2581Pan": 4027,
  "\u2581entfernen": 4028,
  "\u2581Ze": 4029,
  "\u2581Mitteilung": 4030,
  "programm": 4031,
  "\u2581Tabelle": 4032,
  "\u2581Conference": 4033,
  "\u2581Ju": 4034,
  "\u2581seven": 4035,
  "For": 4036,
  "\u2581physical": 4037,
  "\u2581bald": 4038,
  "dienst": 4039,
  "\u2581girl": 4040,
  "Ma": 4041,
  "cher": 4042,
  "\u2581gef\u00fchrt": 4043,
  "park": 4044,
  "oc": 4045,
  "\u2581Europas": 4046,
  "\u2581h\u00f6ren": 4047,
  "\u2581Annahme": 4048,
  "\u2581Robert": 4049,
  "kosten": 4050,
  "AN": 4051,
  "\u2581Haben": 4052,
  "\u2581Gut": 4053,
  "\u2581Pool": 4054,
  "\u2581record": 4055,
  "spiel": 4056,
  "\u2581Bible": 4057,
  "\u2581fixed": 4058,
  "\u2581Register": 4059,
  "61": 4060,
  "rd": 4061,
  "\u2581DVD": 4062,
  "\u258115.": 4063,
  "\u2581angezeigt": 4064,
  "ida": 4065,
  "\u2581Mont": 4066,
  "\u2581nachdem": 4067,
  "\u258143": 4068,
  "sel": 4069,
  "uff": 4070,
  "row": 4071,
  "\u2581connected": 4072,
  "\u2581Language": 4073,
  "\u2581Transfer": 4074,
  "\u2581fahren": 4075,
  "\u2581Pa": 4076,
  "\u2581north": 4077,
  "\u2581Points": 4078,
  "\u2581tickets": 4079,
  "\u2581Filter": 4080,
  "\u2581Ku": 4081,
  "van": 4082,
  "\u2581Water": 4083,
  "RA": 4084,
  "\u2581Great": 4085,
  "mat": 4086,
  "\u2581denke": 4087,
  "\u2581Phase": 4088,
  "\u25819.": 4089,
  "\u2581Deshalb": 4090,
  "\u2581Initiative": 4091,
  "\u2581;": 4092,
  "\u2581supported": 4093,
  "ware": 4094,
  "\u2581sports": 4095,
  "\u2581Kapital": 4096,
  "\u2581installation": 4097,
  "\u2581produce": 4098,
  "\u2581protect": 4099,
  "\u2581Luxembourg": 4100,
  "\u2581Table": 4101,
  "\u2581Interessen": 4102,
  "ble": 4103,
  "\u2581Vertrags": 4104,
  "Ro": 4105,
  "\u2581Over": 4106,
  "\u2581Antrag": 4107,
  "\u2581flights": 4108,
  "\u258110.": 4109,
  "\u2581Gr\u00fcndung": 4110,
  "\u2581Werte": 4111,
  "\u2581Lake": 4112,
  "\u2581Golf": 4113,
  "ration": 4114,
  "\u2581Verkehr": 4115,
  "\u2581Action": 4116,
  "\u2581Abschluss": 4117,
  "\u2581extremely": 4118,
  "\u2581police": 4119,
  "\u2581L\u00e4nge": 4120,
  "\u2581genie\u00dfen": 4121,
  "tri": 4122,
  "\u2581Each": 4123,
  "sta": 4124,
  "\u2581Science": 4125,
  "Sehensw\u00fcrdigkeit": 4126,
  "\u2581Papier": 4127,
  "\u2581anderes": 4128,
  "\u2581ausschlie\u00dflich": 4129,
  "\u2581Sand": 4130,
  "\u2581185": 4131,
  "\u2581thereof": 4132,
  "\u2581bestehen": 4133,
  "\u2581Commissioner": 4134,
  "\u25811989": 4135,
  "\u2581Mini": 4136,
  "\u2581anders": 4137,
  "\u2581park": 4138,
  "TER": 4139,
  "\u2581Klein": 4140,
  "4/": 4141,
  "\u2581Gesetz": 4142,
  "-3": 4143,
  "\u2581majority": 4144,
  "\u2581Many": 4145,
  "von": 4146,
  "\u2581+49": 4147,
  "\u2581Gemeinschafts": 4148,
  "\u2581mainly": 4149,
  "\u2581ID": 4150,
  "\u2581Will": 4151,
  ".12.": 4152,
  "BA": 4153,
  "\u2581gr\u00f6\u00dfte": 4154,
  "\u2581cart": 4155,
  "\u2581wants": 4156,
  "\u2581hell": 4157,
  "\u2581Fi": 4158,
  "\u2581Idee": 4159,
  "uck": 4160,
  "\u2581fundamental": 4161,
  "\u2581Brussels": 4162,
  "\u2581Investitionen": 4163,
  "\u2581\u0308": 4164,
  "\u2581goal": 4165,
  "Im": 4166,
  "\u2581Gr\u00fcnden": 4167,
  "\u2581120": 4168,
  "\u2581Alles": 4169,
  "\u2581Viele": 4170,
  "\u2581Netz": 4171,
  "\u2581warm": 4172,
  "\u2581submitted": 4173,
  "\u2581deinen": 4174,
  "\u2581avoid": 4175,
  "\u2581Ausschusses": 4176,
  "press": 4177,
  "\u2581although": 4178,
  "\u2581Mir": 4179,
  "zug": 4180,
  "stadt": 4181,
  "atur": 4182,
  "\u2581weder": 4183,
  "ara": 4184,
  "Adresse": 4185,
  "\u2581Take": 4186,
  "\u2581changed": 4187,
  "\u2581UND": 4188,
  "\u2581Erkl\u00e4rung": 4189,
  "als": 4190,
  "\u2581Beschluss": 4191,
  "\u2581BE": 4192,
  "\u2581maintenance": 4193,
  "\u2581regulation": 4194,
  "\u2581Praxis": 4195,
  "\u2581Thus": 4196,
  "bu": 4197,
  "pl": 4198,
  "\u2581Navigation": 4199,
  "\u2581Gemeinschaften": 4200,
  "Datei": 4201,
  "\u2581Materialien": 4202,
  "\u2581dienen": 4203,
  "\u2581learning": 4204,
  "\u2581Card": 4205,
  "\u2581worldwide": 4206,
  "\u2581instead": 4207,
  "sma\u00dfnahmen": 4208,
  "f\u00fcr": 4209,
  "\u2581wichtigen": 4210,
  "\u2581running": 4211,
  "\u2581fr\u00fcher": 4212,
  "\u2581(0)": 4213,
  "\u2581Fahrzeug": 4214,
  "\u2581functions": 4215,
  "\u2581Articles": 4216,
  "\u2581organisations": 4217,
  "\u2581Polizei": 4218,
  "Aus": 4219,
  "\u2581numerous": 4220,
  "\u2581profile": 4221,
  "\u2581Holiday": 4222,
  "\u2581Formen": 4223,
  "nach": 4224,
  "\u2581bisher": 4225,
  "\u2581Jerusalem": 4226,
  "\u2581Netzwerk": 4227,
  "name": 4228,
  "\u2581Komm": 4229,
  "cal": 4230,
  "\u2581250": 4231,
  "\u2581consumer": 4232,
  "\u00f3": 4233,
  "\u2581van": 4234,
  "\u2581Son": 4235,
  "ions": 4236,
  "\u2581umfasst": 4237,
  "\u2581Za": 4238,
  "low": 4239,
  "\u2581ideas": 4240,
  "\u2581response": 4241,
  "\u2581Human": 4242,
  "\u2581origin": 4243,
  "RO": 4244,
  "2008": 4245,
  "\u2581Dauer": 4246,
  "74": 4247,
  "house": 4248,
  "\u2581gest\u00fctzt": 4249,
  "\u2581Public": 4250,
  "sicherheit": 4251,
  "\u25811000": 4252,
  "\u2581beyond": 4253,
  "\u2581machines": 4254,
  "\u2581Beach": 4255,
  "\u2581versucht": 4256,
  "ett": 4257,
  "sverfahren": 4258,
  "MS": 4259,
  "\u2581Munich": 4260,
  "\u2581para": 4261,
  "\u2581Stil": 4262,
  "84": 4263,
  "\u2581Today": 4264,
  "\u2581clean": 4265,
  "\u2581meters": 4266,
  "\u2581writing": 4267,
  "\u2581erneut": 4268,
  "\u2581parents": 4269,
  "\u2581\u00dcberwachung": 4270,
  "forschung": 4271,
  "ku": 4272,
  "\u2581Griechenland": 4273,
  "nis": 4274,
  "fen": 4275,
  "\u258111.": 4276,
  "\u2581advantage": 4277,
  "\u2581Cha": 4278,
  "ability": 4279,
  "gehen": 4280,
  "sen": 4281,
  "\u2581vollst\u00e4ndig": 4282,
  "\u2581Fischerei": 4283,
  "serv": 4284,
  "free": 4285,
  "\u2581wahrscheinlich": 4286,
  "\u258192": 4287,
  "\u2581\u00f6ffnen": 4288,
  "\u2581raus": 4289,
  "\u2581Einrichtung": 4290,
  "\u2581king": 4291,
  "\u2581Did": 4292,
  "\u2581Gesch\u00e4ft": 4293,
  "\u2581reading": 4294,
  "\u2581h\u00e4tten": 4295,
  "\u2581Monat": 4296,
  "\u2581betrifft": 4297,
  "\u2581reden": 4298,
  "fest": 4299,
  "\u2581experts": 4300,
  "din": 4301,
  "\u2581specified": 4302,
  "\u2581ne": 4303,
  "\u2581Kooperation": 4304,
  "\u2581regulations": 4305,
  "systeme": 4306,
  "ors": 4307,
  "\u2581calls": 4308,
  "ox": 4309,
  "\u2581giving": 4310,
  "\u2581comfortable": 4311,
  "eck": 4312,
  "\u2581sah": 4313,
  "\u2581Canada": 4314,
  "\u2581Linie": 4315,
  "tur": 4316,
  "\u2581practical": 4317,
  "\u2581faith": 4318,
  "\u2581described": 4319,
  "ping": 4320,
  "\u2581display": 4321,
  "\u2581Heute": 4322,
  "\u2581Tu": 4323,
  "\u2581administration": 4324,
  "\u2581Terrasse": 4325,
  "\u2581schlie\u00dflich": 4326,
  "\u2581bezeichnet": 4327,
  "\u2581au\u00dferhalb": 4328,
  "\u2581wirtschaftliche": 4329,
  "\u2581disease": 4330,
  "SP": 4331,
  "\u2581erf\u00fcllen": 4332,
  "\u2581erh\u00e4lt": 4333,
  "mel": 4334,
  "ula": 4335,
  "UM": 4336,
  "pass": 4337,
  "\u2581prior": 4338,
  "\u2581train": 4339,
  "\u2581diejenigen": 4340,
  "\u2581(2": 4341,
  "\u2581disabled": 4342,
  "\u2581Hall": 4343,
  "\u2581Sha": 4344,
  "\u2581Wa": 4345,
  "\u2581statistics": 4346,
  "oli": 4347,
  "\u2581Ke": 4348,
  "\u2581felt": 4349,
  "\u2581Page": 4350,
  "lor": 4351,
  "fu": 4352,
  "\u2581ausge": 4353,
  "\u2581eat": 4354,
  "\u2581Law": 4355,
  "\u2581mehreren": 4356,
  "\u2581Privat": 4357,
  "hn": 4358,
  "\u2581Street": 4359,
  "\u2581military": 4360,
  "\u2581publication": 4361,
  "Me": 4362,
  "\u2581articles": 4363,
  "\u2581heat": 4364,
  "\u2581recently": 4365,
  "\u2581secure": 4366,
  "2011": 4367,
  "\u2581shower": 4368,
  "\u25813-": 4369,
  "\u2581trees": 4370,
  "\u2581Sitzung": 4371,
  "\u2581Foundation": 4372,
  "stelle": 4373,
  "\u2581languages": 4374,
  "\u2581traffic": 4375,
  "\u2581Down": 4376,
  "\u2581?": 4377,
  "\u2581fresh": 4378,
  "\u2581Arm": 4379,
  "\u2581lose": 4380,
  "\u2581plans": 4381,
  "\u2581angenommen": 4382,
  "\u2581Mess": 4383,
  "\u2581Teilnehmer": 4384,
  "back": 4385,
  "\u2581Two": 4386,
  "\u2581placed": 4387,
  "mark": 4388,
  "\u2581Trans": 4389,
  "72": 4390,
  "\u2581erfolgreich": 4391,
  "\u2581denken": 4392,
  "\u2581senden": 4393,
  "\u2581Blue": 4394,
  "\u2581Feuer": 4395,
  "ular": 4396,
  "\u2581Food": 4397,
  "\u2581beachten": 4398,
  "\u2581sources": 4399,
  "\u2581Pflanzen": 4400,
  "pon": 4401,
  "\u2581situated": 4402,
  "\u2581Zwecke": 4403,
  "\u2581metal": 4404,
  "\u2581sieben": 4405,
  "\u2581Hol": 4406,
  "\u2581Frei": 4407,
  "rt": 4408,
  "\u2581India": 4409,
  "vin": 4410,
  "\u2581unbe": 4411,
  "\u2581willst": 4412,
  "\u2581River": 4413,
  "\u2581Provinz": 4414,
  "\u2581Mond": 4415,
  "\u2581Family": 4416,
  "\u2581erforderlichen": 4417,
  "\u2581numbers": 4418,
  "\u2581wirst": 4419,
  "wi": 4420,
  "eg": 4421,
  "\u2581Miss": 4422,
  "\u2581Metall": 4423,
  "\u2581dachte": 4424,
  "\u2581myself": 4425,
  "ging": 4426,
  "\u2581degree": 4427,
  "\u2581requires": 4428,
  "\u2581Control": 4429,
  "\u2581reported": 4430,
  "\u2581Light": 4431,
  "\u2581erh\u00e4ltlich": 4432,
  "\u2581h\u00e4lt": 4433,
  "2010": 4434,
  "\u2581Europcar": 4435,
  "\u2581Ausstellung": 4436,
  "OJ": 4437,
  ".1": 4438,
  "\u2581Hat": 4439,
  "\u2581Game": 4440,
  "\u2581eher": 4441,
  "\u2581Work": 4442,
  "\u2581Visit": 4443,
  "work": 4444,
  "\u2581schlie\u00dfen": 4445,
  "\u2581Baby": 4446,
  "\u2581Tatsache": 4447,
  "\u2581ticket": 4448,
  "\u2581Frank": 4449,
  "\u2581Gast": 4450,
  "\u2581besonderen": 4451,
  "\u2581hergestellt": 4452,
  "\u2581Kurz": 4453,
  "\u2581Partei": 4454,
  "\u2581Angst": 4455,
  "\u2581hire": 4456,
  "sam": 4457,
  "\u2581Dialog": 4458,
  "\u2581Andere": 4459,
  "\u2581Beteiligung": 4460,
  "ort": 4461,
  "\u2581Manager": 4462,
  "\u2581tour": 4463,
  "\u2581behandelt": 4464,
  "\u2581Kommunikation": 4465,
  "\u2581Si": 4466,
  "\u2581aktuellen": 4467,
  "\u2581Kauf": 4468,
  "\u258116.": 4469,
  "\u2581track": 4470,
  "ris": 4471,
  "\u2581radio": 4472,
  "\u2581Mobile": 4473,
  "\u2581growing": 4474,
  "\u2581store": 4475,
  "\u2581genutzt": 4476,
  "ult": 4477,
  "\u2581terrace": 4478,
  "\u2581continued": 4479,
  "\u2581accepted": 4480,
  "tischen": 4481,
  "\u25811988": 4482,
  "(2)": 4483,
  "73": 4484,
  "\u2581Vorschl\u00e4ge": 4485,
  "\u2581verloren": 4486,
  "\u2581break": 4487,
  "\u2581Stra\u00dfen": 4488,
  "\u2581deiner": 4489,
  "\u2581fruit": 4490,
  "\u2581finally": 4491,
  "\u2581Wege": 4492,
  "\u00c4": 4493,
  "0.000": 4494,
  "\u2581Dorf": 4495,
  "CC": 4496,
  "\u2581Training": 4497,
  "\u2581statement": 4498,
  "\u2581DIE": 4499,
  "\u2581court": 4500,
  "illa": 4501,
  "\u2581Sprachen": 4502,
  "\u2581Videos": 4503,
  "\u2581ski": 4504,
  "\u2581Nat\u00fcrlich": 4505,
  "\u2581verlassen": 4506,
  "\u2581Tat": 4507,
  "\u2581Hafen": 4508,
  "\u2581Jean": 4509,
  "\u2581Artikels": 4510,
  "\u2581Thank": 4511,
  "\u2581knew": 4512,
  "\u2581Head": 4513,
  "ose": 4514,
  "\u2581Cap": 4515,
  "era": 4516,
  "punkt": 4517,
  "\u2581limit": 4518,
  "\u2581Anwendungen": 4519,
  "\u2581Schaffung": 4520,
  "\u2581reform": 4521,
  "2018": 4522,
  "\u2581Mor": 4523,
  "\u2581Men\u00fc": 4524,
  "\u2581wall": 4525,
  "\u25812020": 4526,
  "\u2581Gefahr": 4527,
  "\u2581scope": 4528,
  "ff": 4529,
  "\u2581target": 4530,
  "\u2581comprehensive": 4531,
  "\u2581Bundes": 4532,
  "\u2581entsprechen": 4533,
  "ssen": 4534,
  "top": 4535,
  "kar": 4536,
  "\u2581families": 4537,
  "\u2581Tisch": 4538,
  "\u2581exactly": 4539,
  "\u2581sufficient": 4540,
  "\u2581Click": 4541,
  "\u2581risks": 4542,
  "UR": 4543,
  "lt": 4544,
  "\u2581sorgen": 4545,
  "\u2581detail": 4546,
  "\u2581efficient": 4547,
  "ete": 4548,
  "\u2581Order": 4549,
  "\u2581screen": 4550,
  "\u2581Bal": 4551,
  "\u2581[...]": 4552,
  "\u2581zun\u00e4chst": 4553,
  "\u2581purchase": 4554,
  "\u2581rule": 4555,
  "\u2581Mindest": 4556,
  "\u2581--": 4557,
  "\u2581\u00fcbertragen": 4558,
  "\u258102": 4559,
  "\u2581begann": 4560,
  "\u2581format": 4561,
  "\u2581eye": 4562,
  "91": 4563,
  "\u2581Plus": 4564,
  "\u2581Section": 4565,
  "UN": 4566,
  "\u2581fand": 4567,
  "\u2581Pi": 4568,
  "tisch": 4569,
  "\u2581determined": 4570,
  "\u2581thank": 4571,
  "\u2581Nachricht": 4572,
  "\u2581Punkte": 4573,
  "\u2581Aufnahme": 4574,
  "\u2581replaced": 4575,
  "\u2581factors": 4576,
  "ther": 4577,
  "igung": 4578,
  "lau": 4579,
  "\u2581Microsoft": 4580,
  "\u2581entweder": 4581,
  "\u2581Ukraine": 4582,
  "\u2581Tool": 4583,
  "\u2581print": 4584,
  "\u2581Krieg": 4585,
  "har": 4586,
  "\u2581Bibel": 4587,
  "\u258121.": 4588,
  "\u2581funding": 4589,
  "\u2581Asia": 4590,
  "\u2581beginnen": 4591,
  "\u2581Mission": 4592,
  "\u258195": 4593,
  "\u2581Us": 4594,
  "eth": 4595,
  "\u2581laws": 4596,
  "\u2581Nutzen": 4597,
  "63": 4598,
  "\u2581Camping": 4599,
  "gas": 4600,
  "\u2581File": 4601,
  "No": 4602,
  "ologie": 4603,
  "\u2581write": 4604,
  "\u2581ISO": 4605,
  "bare": 4606,
  "\u2581draft": 4607,
  "\u2581export": 4608,
  "gon": 4609,
  "\u2581Systeme": 4610,
  "\u2581micro": 4611,
  "SI": 4612,
  "\u2581zahlreiche": 4613,
  "\u2581Schul": 4614,
  "ill": 4615,
  "\u2581Serie": 4616,
  "\u2581Bruder": 4617,
  "\u2581talking": 4618,
  "gy": 4619,
  "\u2581ziehen": 4620,
  "\u2581died": 4621,
  "\u25811985": 4622,
  "\u2581Non": 4623,
  "\u2581unto": 4624,
  "\u2581Thanks": 4625,
  "\u2581package": 4626,
  "ada": 4627,
  "\u2581aware": 4628,
  "\u2581benutzt": 4629,
  ":00": 4630,
  "\u2581representatives": 4631,
  "\u2581Gl\u00fcck": 4632,
  "\u2581influence": 4633,
  "\u2581relation": 4634,
  "\u2581skills": 4635,
  "\u2581Tiere": 4636,
  "station": 4637,
  "\u2581na": 4638,
  "\u2581certainly": 4639,
  "\u2581folgen": 4640,
  "wirtschaft": 4641,
  "\u2581Updates": 4642,
  "\u2581initiative": 4643,
  "\u2581caused": 4644,
  "\u2581Folgen": 4645,
  "If": 4646,
  "\u2581Box": 4647,
  "\u2581Beihilfe": 4648,
  "\u2581sites": 4649,
  "2002": 4650,
  "\u2581wahr": 4651,
  "\u2581welches": 4652,
  "\u2581Cart": 4653,
  "\u2581Zoll": 4654,
  "\u2581Opfer": 4655,
  "\u2581presence": 4656,
  "\u2581winter": 4657,
  "\u2581manufacturer": 4658,
  "\u2581Guide": 4659,
  "\u2581ber\u00fccksichtigt": 4660,
  "ture": 4661,
  "\u2581sometimes": 4662,
  "\u2581availability": 4663,
  "\u2581approximately": 4664,
  "pen": 4665,
  "\u2581Whereas": 4666,
  "\u2581mission": 4667,
  "\u2581Zwischen": 4668,
  "pre": 4669,
  "rum": 4670,
  "\u2581Anspruch": 4671,
  "ious": 4672,
  "wand": 4673,
  "cu": 4674,
  "\u258117.": 4675,
  "\u2581Fenster": 4676,
  "\u2581Although": 4677,
  "\u2581Hintergrund": 4678,
  "lig": 4679,
  "\u2581amendments": 4680,
  "\u2581sch\u00f6ne": 4681,
  "\u2581Bewegung": 4682,
  "\u2581Location": 4683,
  "\u2581sets": 4684,
  "\u258112.": 4685,
  "\u2581wenige": 4686,
  "\u2581betr\u00e4gt": 4687,
  "\u2581Fest": 4688,
  "\u2581dialogue": 4689,
  "Sp": 4690,
  "\u2581Wohn": 4691,
  "dia": 4692,
  "\u2581flexible": 4693,
  "leistung": 4694,
  "\u2581Hinweis": 4695,
  "\u2581600": 4696,
  "\u2581Immobilien": 4697,
  "seite": 4698,
  "\u25811:": 4699,
  "\u2581Mer": 4700,
  "2-": 4701,
  "\u2581Option": 4702,
  "\u2581Safe": 4703,
  "\u2581establish": 4704,
  "\u2581Ost": 4705,
  "\u2581Added": 4706,
  "\u2581privaten": 4707,
  "\u2581Nutzer": 4708,
  "\u2581Gelegenheit": 4709,
  "\u2581gekommen": 4710,
  "\u2581sofern": 4711,
  "\u2581alte": 4712,
  "\u2581Veranstaltung": 4713,
  "\u2581historical": 4714,
  "\u258164": 4715,
  "\u2581imports": 4716,
  "\u258109": 4717,
  "\u258118.": 4718,
  "\u2581maximal": 4719,
  "\u2581....": 4720,
  "\u258141": 4721,
  "\u2581kill": 4722,
  "\u2581Profil": 4723,
  "Con": 4724,
  "management": 4725,
  "\u2581spricht": 4726,
  "\u2581advice": 4727,
  "\u2581Have": 4728,
  "\u2581anyone": 4729,
  "\u2581damage": 4730,
  "eln": 4731,
  "ulation": 4732,
  "\u2581enterprises": 4733,
  "\u2581Cal": 4734,
  "ight": 4735,
  "\u2581registered": 4736,
  "\u2581introduced": 4737,
  "\u2581doctor": 4738,
  "verfahren": 4739,
  "\u2581Technik": 4740,
  "\u2581Mary": 4741,
  "\u2581organisation": 4742,
  "\u2581quiet": 4743,
  "\u2581Belgium": 4744,
  "IM": 4745,
  "\u2581district": 4746,
  "\u2581kon": 4747,
  "53": 4748,
  "\u2581Konzept": 4749,
  "\u2581musst": 4750,
  "\u2581boat": 4751,
  "\u2581\u00fcberhaupt": 4752,
  "ville": 4753,
  "star": 4754,
  "ska": 4755,
  "\u2581mo": 4756,
  "mb": 4757,
  "\u2581letter": 4758,
  "\u2581Mat": 4759,
  "\u2581developments": 4760,
  "\u00e4n": 4761,
  "\u2581Che": 4762,
  "\u2581error": 4763,
  "\u2581coffee": 4764,
  "bin": 4765,
  "\u2581Area": 4766,
  "\u2581Marke": 4767,
  "\u2581figures": 4768,
  "\u2581Gef\u00fchl": 4769,
  "\u2581Erweiterung": 4770,
  "info": 4771,
  "-/": 4772,
  "\u2581Gewalt": 4773,
  "wo": 4774,
  "\u2581financing": 4775,
  "\u2581thinking": 4776,
  "\u258114.": 4777,
  "\u2581fit": 4778,
  "\u2581Jehova": 4779,
  "\u2581Valencia": 4780,
  "\u2581playing": 4781,
  "2007": 4782,
  "tter": 4783,
  "\u2581informed": 4784,
  "\u2581m\u00f6glicherweise": 4785,
  "\u2581zer": 4786,
  "\u2581S\u00fcd": 4787,
  "\u2581bilden": 4788,
  "\u2581navigation": 4789,
  "\u2581Technologien": 4790,
  "\u2581comment": 4791,
  "\u2581matters": 4792,
  "\u2581inform": 4793,
  "\u2581spielt": 4794,
  "\u2581Out": 4795,
  "\u2581kaum": 4796,
  "MO": 4797,
  "\u2581braucht": 4798,
  "\u2581nationale": 4799,
  "81": 4800,
  "\u2581Ruhe": 4801,
  "\u2581science": 4802,
  "my": 4803,
  "\u2581cool": 4804,
  "\u2581Anlagen": 4805,
  "san": 4806,
  "\u2581Ur": 4807,
  "\u2581Ausschu\u00df": 4808,
  "\u2581gezeigt": 4809,
  "\u2581Avis": 4810,
  "ists": 4811,
  "\u2581piece": 4812,
  "\u2581isn": 4813,
  "room": 4814,
  "\u2581Mode": 4815,
  "\u2581Sweden": 4816,
  "\u2581establishment": 4817,
  "\u2581except": 4818,
  "\u2581klicken": 4819,
  "\u2581task": 4820,
  "\u2581eure": 4821,
  "PA": 4822,
  "\u2581Mel": 4823,
  "bei": 4824,
  "\u2581ship": 4825,
  "arbeiten": 4826,
  "\u2581Verwaltungs": 4827,
  "hen": 4828,
  "sy": 4829,
  "\u258131.": 4830,
  "62": 4831,
  "\u2581t\u00e4tig": 4832,
  "\u2581T\u00fcr": 4833,
  "\u2581draw": 4834,
  "\u2581conditioning": 4835,
  "\u2581fort": 4836,
  "\u2581\u00dcbersicht": 4837,
  "\u2581ads": 4838,
  "bal": 4839,
  "\u2581Kriterien": 4840,
  "\u2581geboren": 4841,
  "\u2581Arzt": 4842,
  "\u2581bus": 4843,
  "\u2581recommended": 4844,
  "\u258152": 4845,
  "\u2581Inc": 4846,
  "\u2581Education": 4847,
  "rei": 4848,
  "\u2581Buy": 4849,
  "\u2581Bra": 4850,
  "\u2581square": 4851,
  "\u2581Communities": 4852,
  "\u2581Entscheidungen": 4853,
  "\u2581Project": 4854,
  "1\u20444": 4855,
  "ria": 4856,
  "\u2581middle": 4857,
  "fo": 4858,
  "\u2581geschaffen": 4859,
  "aff": 4860,
  "\u2581buildings": 4861,
  "\u2581Australia": 4862,
  "\u2581manner": 4863,
  "legen": 4864,
  "\u2581Features": 4865,
  "bl": 4866,
  "\u2581leaves": 4867,
  "\u2581border": 4868,
  "\u2581richtige": 4869,
  "\u2581Greek": 4870,
  "\u2581Next": 4871,
  "\u2581brother": 4872,
  "\u2581difference": 4873,
  "\u2581Suchen": 4874,
  "\u2581Auffassung": 4875,
  "\u2581optimal": 4876,
  "izing": 4877,
  "ras": 4878,
  "\u2581Bur": 4879,
  "tar": 4880,
  "werte": 4881,
  "\u2581internet": 4882,
  "\u2581directive": 4883,
  "2015": 4884,
  "\u2581Pat": 4885,
  "\u2581Charakter": 4886,
  "\u2581Luxemburg": 4887,
  "\u2581primary": 4888,
  "\u2581apartments": 4889,
  "gg": 4890,
  "\u2581Call": 4891,
  "ack": 4892,
  "\u2581st\u00e4ndig": 4893,
  "\u258107": 4894,
  "\u2581Kollegen": 4895,
  "\u2581min": 4896,
  "\u2581Han": 4897,
  "\u2581visited": 4898,
  "SC": 4899,
  "\u2581Direkt": 4900,
  "\u258108": 4901,
  "\u2581erstellen": 4902,
  "bahn": 4903,
  "born": 4904,
  "\u2581band": 4905,
  "\u2581Ve": 4906,
  "\u2581Christus": 4907,
  "eb": 4908,
  "\u2581Fleisch": 4909,
  "\u2581Worte": 4910,
  "ges": 4911,
  "\u2581\u00dcberpr\u00fcfung": 4912,
  "\u2581fear": 4913,
  "\u2581County": 4914,
  "\u2581character": 4915,
  "\u2581acht": 4916,
  "\u2581Regeln": 4917,
  "\u2581gegr\u00fcndet": 4918,
  "\u2581decide": 4919,
  "\u2581scheme": 4920,
  "\u2581Falle": 4921,
  "\u2581erwarten": 4922,
  "\u2581ability": 4923,
  "\u25811987": 4924,
  "\u2581Dan": 4925,
  "TE": 4926,
  "air": 4927,
  "\u2581cars": 4928,
  "\u2581priority": 4929,
  "\u2581happen": 4930,
  "lass": 4931,
  "\u2581Network": 4932,
  "\u2581understanding": 4933,
  "ane": 4934,
  "itz": 4935,
  "\u2581obwohl": 4936,
  "\u2581figure": 4937,
  "\u2581closed": 4938,
  "\u2581cards": 4939,
  "\u2581offering": 4940,
  "\u2581tree": 4941,
  "2000": 4942,
  "med": 4943,
  "\u2581Karten": 4944,
  "mus": 4945,
  "\u2581linked": 4946,
  "\u2581territory": 4947,
  "\u2581implementing": 4948,
  "\u2581VI": 4949,
  "\u2581Agency": 4950,
  "\u2581Western": 4951,
  "\u2581participants": 4952,
  "pol": 4953,
  "\u2581Kommentar": 4954,
  "\u2581cold": 4955,
  "\u2581circumstances": 4956,
  "\u2581Father": 4957,
  "\u2581window": 4958,
  "\u2581Tal": 4959,
  "\u2581Spieler": 4960,
  "\u2581verkaufen": 4961,
  "gio": 4962,
  "OL": 4963,
  "\u2581Beihilfen": 4964,
  "\u2581gr\u00f6\u00dfere": 4965,
  "\u2581challenges": 4966,
  "\u2581Mc": 4967,
  "isieren": 4968,
  "\u2581platform": 4969,
  "\u2581Bereiche": 4970,
  "\u2581Staat": 4971,
  "\u2581Burg": 4972,
  "\u2581Pu": 4973,
  "\u2581rich": 4974,
  "EM": 4975,
  "\u2581trust": 4976,
  "/4": 4977,
  "\u2581issued": 4978,
  "\u2581Interessantes": 4979,
  "\u2581Bay": 4980,
  "\u2581Win": 4981,
  "voll": 4982,
  "\u2581concern": 4983,
  "\u2581Marketing": 4984,
  "\u2581Zubeh\u00f6r": 4985,
  "\u2581refer": 4986,
  "\u2581kostenlos": 4987,
  "\u2581Herren": 4988,
  "\u2581organization": 4989,
  "\u2581otherwise": 4990,
  "ea": 4991,
  "LA": 4992,
  "fahrt": 4993,
  "ama": 4994,
  "\u2581Russland": 4995,
  "res": 4996,
  "\u2581feature": 4997,
  "\u2581lokalen": 4998,
  "\u2581Camp": 4999,
  "\u2581milk": 5000,
  "ona": 5001,
  "200": 5002,
  "AM": 5003,
  "\u2581Aufbau": 5004,
  "\u2581Stock": 5005,
  "wer": 5006,
  "\u2581gleiche": 5007,
  "\u2581Orte": 5008,
  "\u2581foot": 5009,
  "\u2581duty": 5010,
  "52": 5011,
  "\u2581Sicht": 5012,
  "AC": 5013,
  "iff": 5014,
  "\u2581St\u00e4dten": 5015,
  "lose": 5016,
  "\u2581st\u00e4rker": 5017,
  "\u2581FR": 5018,
  "\u2581generally": 5019,
  "\u2581button": 5020,
  "\u25811986": 5021,
  "cho": 5022,
  "\u2581Reich": 5023,
  "\u2581Begriff": 5024,
  "2016": 5025,
  "3%": 5026,
  "\u2581exercise": 5027,
  "\u2581earlier": 5028,
  "\u2581Drei": 5029,
  "mmer": 5030,
  "\u2581rechts": 5031,
  "\u2581domestic": 5032,
  "\u2581clients": 5033,
  "\u2581route": 5034,
  "2012": 5035,
  "\u2581baby": 5036,
  "\u2581Terms": 5037,
  "\u2581guy": 5038,
  "\u258104": 5039,
  "\u2581wrote": 5040,
  "\u2581Kaffee": 5041,
  "ball": 5042,
  "\u2581Czech": 5043,
  "\u2581Sind": 5044,
  "ford": 5045,
  "\u2581Ci": 5046,
  "\u2581object": 5047,
  "\u2581Rome": 5048,
  "\u2581relativ": 5049,
  "sprogramm": 5050,
  "\u2581containing": 5051,
  "\u2581PRO": 5052,
  "anlage": 5053,
  "\u2581GE": 5054,
  "\u2581Note": 5055,
  "\u2581books": 5056,
  "\u2581Kern": 5057,
  "\u2581consists": 5058,
  "\u2581sold": 5059,
  "\u2581founded": 5060,
  "\u2581Farb": 5061,
  "anlagen": 5062,
  "\u2581permanent": 5063,
  "\u2581Zug": 5064,
  "\u2581Notwendigkeit": 5065,
  "\u2581welcher": 5066,
  "Pa": 5067,
  "\u258113.": 5068,
  "\u2581Under": 5069,
  "iti": 5070,
  "\u2581voice": 5071,
  "\u2581guide": 5072,
  "\u2581substances": 5073,
  "\u2581looks": 5074,
  "ct": 5075,
  "\u2581turned": 5076,
  "\u2581vertreten": 5077,
  "\u2581WC": 5078,
  "bad": 5079,
  "vir": 5080,
  "ati": 5081,
  "\u2581deep": 5082,
  "liste": 5083,
  "reich": 5084,
  "\u2581max": 5085,
  "gasse": 5086,
  "\u2581background": 5087,
  "\u2581Rang": 5088,
  "\u2581darunter": 5089,
  "\u2581Old": 5090,
  "\u2581arrangements": 5091,
  "\u2581Wall": 5092,
  "leg": 5093,
  "\u2581dedicated": 5094,
  "\u2581metres": 5095,
  "ast": 5096,
  "\u2581strength": 5097,
  "\u2581Beh\u00f6rde": 5098,
  "\u2581Kenntnis": 5099,
  "\u2581import": 5100,
  "\u2581dose": 5101,
  "ition": 5102,
  "\u2581\u00d6ffentlichkeit": 5103,
  "\u2581Schweden": 5104,
  "\u2581Lesen": 5105,
  "\u2581approval": 5106,
  "(1)": 5107,
  "Ab": 5108,
  "ments": 5109,
  "\u2581Reform": 5110,
  "\u2581entsprechende": 5111,
  "\u2581discussion": 5112,
  "\u2581actual": 5113,
  "\u2581serve": 5114,
  "\u2581generation": 5115,
  "ase": 5116,
  "\u2581Anpassung": 5117,
  "\u2581unmittelbar": 5118,
  "\u2581Maybe": 5119,
  "\u2581significantly": 5120,
  "kal": 5121,
  "\u2581Market": 5122,
  "\u2581Karriere": 5123,
  "\u2581comparison": 5124,
  "\u2581race": 5125,
  "\u2581fuel": 5126,
  "\u2581engine": 5127,
  "\u2581Entschlie\u00dfung": 5128,
  "\u2581Daniel": 5129,
  "\u2581thousands": 5130,
  "\u2581mass": 5131,
  "\u2581fragen": 5132,
  "\u2581manufacturing": 5133,
  "grad": 5134,
  "\u2581Pra": 5135,
  "ux": 5136,
  "\u2581Objekt": 5137,
  "\u2581knows": 5138,
  "\u258154": 5139,
  "\u2581tr\u00e4gt": 5140,
  "minute": 5141,
  "\u2581flow": 5142,
  "\u2581Its": 5143,
  "\u2581Oder": 5144,
  "\u2581contain": 5145,
  "\u2581negotiations": 5146,
  "\u2581HD": 5147,
  "cker": 5148,
  "\u2581Wieder": 5149,
  "book": 5150,
  "\u2581USB": 5151,
  "ender": 5152,
  "\u2581flowers": 5153,
  "\u2581vi": 5154,
  "\u2581Royal": 5155,
  "ade": 5156,
  "\u2581EESC": 5157,
  "\u2581delivered": 5158,
  "\u2581vorliegenden": 5159,
  "\u2581abge": 5160,
  "\u2581kamen": 5161,
  "\u2581perhaps": 5162,
  "ma\u00dfnahmen": 5163,
  "welt": 5164,
  "\u2581AN": 5165,
  "DI": 5166,
  "/10": 5167,
  "frei": 5168,
  "\u2581initial": 5169,
  "\u2581Size": 5170,
  "\u2581landwirtschaft": 5171,
  "\u2581sorry": 5172,
  "2005": 5173,
  "\u2581commitment": 5174,
  "\u2581essen": 5175,
  "\u2581entered": 5176,
  "\u2581advanced": 5177,
  "ple": 5178,
  "how": 5179,
  "\u2581Furthermore": 5180,
  "\u2581abgeschlossen": 5181,
  "\u2581Via": 5182,
  "\u2581offen": 5183,
  "\u2581speziell": 5184,
  "var": 5185,
  "\u2581notice": 5186,
  "\u2581effort": 5187,
  "\u2581becomes": 5188,
  "\u258106": 5189,
  "\u2581Thursday": 5190,
  "\u2581drink": 5191,
  "\u00df": 5192,
  "\u2581zuvor": 5193,
  "\u2581Kann": 5194,
  "\u2581geschlossen": 5195,
  "\u2581ange": 5196,
  "\u2581Kabel": 5197,
  "\u2581Firmen": 5198,
  "ev": 5199,
  "\u2581George": 5200,
  "\u2581reality": 5201,
  "\u2581Denmark": 5202,
  "r\u00f6": 5203,
  "\u2581names": 5204,
  "AP": 5205,
  "\u2581Br\u00fcssel": 5206,
  "\u258103": 5207,
  "\u2581Produkten": 5208,
  "\u2581Gedanken": 5209,
  "lauf": 5210,
  "\u2581signed": 5211,
  "\u2581Methoden": 5212,
  "mes": 5213,
  "ENT": 5214,
  "cia": 5215,
  "bas": 5216,
  "\u2581kept": 5217,
  "\u2581Belgien": 5218,
  "\u2581Sinn": 5219,
  "\u2581Grenzen": 5220,
  "\u2581Chance": 5221,
  "haft": 5222,
  "\u2581height": 5223,
  "\u2581cable": 5224,
  "\u2581star": 5225,
  "\u2581lediglich": 5226,
  "\u2581combined": 5227,
  "CH": 5228,
  "\u2581indeed": 5229,
  "\u2581contribute": 5230,
  "\u2581TO": 5231,
  "\u2581improving": 5232,
  "code": 5233,
  "\u2581structures": 5234,
  "unt": 5235,
  "post": 5236,
  "\u2581erkl\u00e4ren": 5237,
  "\u2581%)": 5238,
  "\u2581Hast": 5239,
  "\u2581Ya": 5240,
  "PC": 5241,
  "\u2581Poland": 5242,
  "\u2581producers": 5243,
  "\u2581Kor": 5244,
  "\u2581Au\u00dfen": 5245,
  "\u2581Reviews": 5246,
  "\u2581Milch": 5247,
  "lon": 5248,
  "\u2581Kategorien": 5249,
  "\u2581Map": 5250,
  "\u2581OK": 5251,
  "\u2581T\u00e4tigkeiten": 5252,
  "dom": 5253,
  "ising": 5254,
  "\u2581consumers": 5255,
  "-8": 5256,
  "\u2581Stunde": 5257,
  "\u2581cell": 5258,
  "\u2581powerful": 5259,
  "TA": 5260,
  "\u2581Downloads": 5261,
  "\u258146": 5262,
  "ax": 5263,
  "0.00": 5264,
  "\u2581sonst": 5265,
  "\u2581Innen": 5266,
  "gra": 5267,
  "\u2581appear": 5268,
  "\u2581Aspekte": 5269,
  "\u2581regelm\u00e4\u00dfig": 5270,
  "2001": 5271,
  "\u2581Bett": 5272,
  "film": 5273,
  "\u2581aktuelle": 5274,
  "ger\u00e4te": 5275,
  "\u2581determine": 5276,
  "\u2581correct": 5277,
  "cor": 5278,
  "\u2581farm": 5279,
  "bol": 5280,
  "\u2581Hinzugef\u00fcgt": 5281,
  "\u2581obtained": 5282,
  "\u2581Safety": 5283,
  "\u2581instrument": 5284,
  "\u2581Technical": 5285,
  "\u2581ben\u00f6tigen": 5286,
  "\u2581unemployment": 5287,
  "\u2581Austausch": 5288,
  "\u2581Review": 5289,
  "\u2581pursuant": 5290,
  "\u2581Jugend": 5291,
  "\u2581touch": 5292,
  "\u2581Tuesday": 5293,
  "\u2581deliver": 5294,
  "\u2581n\u00e4chste": 5295,
  "\u2581Lieferung": 5296,
  "\u2581machte": 5297,
  "AG": 5298,
  "ement": 5299,
  "\u2581Front": 5300,
  "\u2581compatible": 5301,
  "\u2581Einheit": 5302,
  "\u2581implemented": 5303,
  "tage": 5304,
  "\u2581Deine": 5305,
  "\u2581forces": 5306,
  "zentrum": 5307,
  "istic": 5308,
  "\u2581Parteien": 5309,
  "\u2581Sunday": 5310,
  "\u2581Irland": 5311,
  "\u2581killed": 5312,
  "pan": 5313,
  "\u2581expressed": 5314,
  "\u2581Beitr\u00e4ge": 5315,
  "\u2581Members": 5316,
  "\u2581improved": 5317,
  "einrichtungen": 5318,
  "\u2581scale": 5319,
  "\u2581favour": 5320,
  "\u2581Stuttgart": 5321,
  "\u2581Monte": 5322,
  "\u2581moved": 5323,
  "\u2581kleiner": 5324,
  "\u2581vorgesehen": 5325,
  "\u2581Wand": 5326,
  "\u2581habt": 5327,
  "\u2581gesetzt": 5328,
  "\u2581Ga": 5329,
  "arten": 5330,
  "\u2581Paper": 5331,
  "\u2581friendly": 5332,
  "\u2581hinzuf\u00fcgen": 5333,
  "\u2581Freiheit": 5334,
  "\u2581Tags": 5335,
  "dal": 5336,
  "\u2581Ausgabe": 5337,
  "\u2581junge": 5338,
  "gan": 5339,
  "\u258128.": 5340,
  "Was": 5341,
  "war": 5342,
  "schaftlichen": 5343,
  "\u2581Financial": 5344,
  "\u2581players": 5345,
  "schl": 5346,
  "-5": 5347,
  "\u2581Site": 5348,
  "fl": 5349,
  "\u2581et": 5350,
  "Ex": 5351,
  "\u2581artists": 5352,
  "\u2581Travel": 5353,
  "\u2581Tel": 5354,
  "EUR": 5355,
  "\u2581Mil": 5356,
  "lock": 5357,
  "\u2581Donnerstag": 5358,
  "licht": 5359,
  "\u2581Wunsch": 5360,
  "\u2581houses": 5361,
  "\u2581Frieden": 5362,
  "\u2581musste": 5363,
  "\u2581fertig": 5364,
  "pri": 5365,
  "\u2581verpflichtet": 5366,
  "\u2581miss": 5367,
  "\u2581Studio": 5368,
  "\u2581deinem": 5369,
  "\u2581dark": 5370,
  "\u2581emissions": 5371,
  "\u2581Dienste": 5372,
  "\u2581tasks": 5373,
  "wesen": 5374,
  "su": 5375,
  "hol": 5376,
  "\u2581gift": 5377,
  "\u2581electric": 5378,
  "\u258188": 5379,
  "\u2581categories": 5380,
  "\u2581quarter": 5381,
  "\u2581Weil": 5382,
  "\u2581Nations": 5383,
  "5%": 5384,
  "dic": 5385,
  "\u2581Ver\u00e4nderungen": 5386,
  "gruppen": 5387,
  "\u2581restaurants": 5388,
  "ero": 5389,
  "\u2581personenbezogen": 5390,
  "alen": 5391,
  "\u2581Ac": 5392,
  "arm": 5393,
  "\u2581supports": 5394,
  "\u2581einge": 5395,
  "\u2581Kilometer": 5396,
  "\u2581Department": 5397,
  "\u2581cells": 5398,
  "\u2581schools": 5399,
  "System": 5400,
  "\u2581ziemlich": 5401,
  "\u2581customs": 5402,
  "\u2581\u00b7": 5403,
  "\u2581Ste": 5404,
  "\u2581beginnt": 5405,
  "\u2581zudem": 5406,
  "\u2581characteristics": 5407,
  "\u2581seid": 5408,
  "\u2581player": 5409,
  "\u2581Gericht": 5410,
  "\u2581released": 5411,
  "fragen": 5412,
  "\u2581Express": 5413,
  "\u2581dritten": 5414,
  "\u2581funktioniert": 5415,
  "\u2581institution": 5416,
  "tre": 5417,
  "\u2581bi": 5418,
  ".11.": 5419,
  "\u2581bez\u00fcglich": 5420,
  "\u2581Fortschritte": 5421,
  "ey": 5422,
  "\u2581Bestimmung": 5423,
  "\u2581Like": 5424,
  "\u2581Turkey": 5425,
  "\u2581EIB": 5426,
  "\u2581Welcome": 5427,
  "\u2581Send": 5428,
  "\u2581telephone": 5429,
  "r\u00fcck": 5430,
  "\u2581wichtiger": 5431,
  "\u2581concerns": 5432,
  "Co": 5433,
  "\u2581Wild": 5434,
  "\u258149": 5435,
  "\u2581Adresse": 5436,
  "\u258147": 5437,
  "\u2581seem": 5438,
  "\u2581f\u00fchrte": 5439,
  "\u2581introduction": 5440,
  "\u2581eight": 5441,
  "\u2581Key": 5442,
  "\u2581Karl": 5443,
  "\u2581worth": 5444,
  "bringen": 5445,
  "laden": 5446,
  "\u2581dry": 5447,
  "\u2581Fassung": 5448,
  "\u2581gone": 5449,
  "\u2581Sehr": 5450,
  "\u2581Jeder": 5451,
  "isiert": 5452,
  "\u2581Fe": 5453,
  "\u2581Ball": 5454,
  "\u2581career": 5455,
  "\u2581Dienstag": 5456,
  "\u2581Polen": 5457,
  "\u2581wonderful": 5458,
  "\u2581Labor": 5459,
  "\u2581rent": 5460,
  "\u2581Abstimmung": 5461,
  "verkehr": 5462,
  "\u2581liefern": 5463,
  "\u2581Affairs": 5464,
  "0/": 5465,
  "\u2581Infrastruktur": 5466,
  "screen": 5467,
  "\u2581SE": 5468,
  "bildung": 5469,
  "\u2581Single": 5470,
  "\u2581Unterk\u00fcnfte": 5471,
  "\u2581gets": 5472,
  "\u2581Help": 5473,
  "\u2581gern": 5474,
  "bon": 5475,
  "\u2581Anmeldung": 5476,
  "\u2581colour": 5477,
  "\u2581Solar": 5478,
  "ef": 5479,
  "\u2581nuclear": 5480,
  "\u2581sugar": 5481,
  "\u2581experiences": 5482,
  "\u2581street": 5483,
  "\u2581(18": 5484,
  "\u2581Balkon": 5485,
  "\u2581Temperatur": 5486,
  "\u2581obligations": 5487,
  "eur": 5488,
  "\u2581Botschaft": 5489,
  "organisation": 5490,
  "\u2581zahlreichen": 5491,
  "-7": 5492,
  "\u2581discuss": 5493,
  "\u2581Para": 5494,
  "\u2581Tro": 5495,
  "\u2581Sein": 5496,
  "lang": 5497,
  "\u2581Weather": 5498,
  "\u2581Long": 5499,
  "Ha": 5500,
  "\u2581Spa\u00df": 5501,
  "\u2581meetings": 5502,
  "\u2581Award": 5503,
  "\u2581pain": 5504,
  "\u2581registration": 5505,
  "\u2581Make": 5506,
  "\u2581Patent": 5507,
  "\u2581Right": 5508,
  "\u2581Ticket": 5509,
  "\u2581Experten": 5510,
  "maschinen": 5511,
  "\u2581Status": 5512,
  "\u258130.": 5513,
  "\u2581verlieren": 5514,
  "[": 5515,
  "\u258100": 5516,
  "\u2581Store": 5517,
  "wagen": 5518,
  "\u2581Fahrt": 5519,
  "\u2581seien": 5520,
  "ute": 5521,
  "\u2581artist": 5522,
  "\u2581daughter": 5523,
  "\u2581banks": 5524,
  "\u2581Uni": 5525,
  "Auf": 5526,
  "\u2581association": 5527,
  "\u2581Ph": 5528,
  "hal": 5529,
  "wald": 5530,
  "ellen": 5531,
  "................": 5532,
  "\u2581corresponding": 5533,
  "\u2581danach": 5534,
  "baren": 5535,
  "\u2581Access": 5536,
  "\u2581adopt": 5537,
  "\u2581vergangenen": 5538,
  "\u2581bestehenden": 5539,
  "\u2581Vergangenheit": 5540,
  "\u2581allgemeine": 5541,
  "\u2581river": 5542,
  "\u2581Schwarz": 5543,
  "\u2581structural": 5544,
  "\u2581erh\u00f6ht": 5545,
  "rin": 5546,
  "\u2581spread": 5547,
  "\u2581eben": 5548,
  "\u2581feeling": 5549,
  "\u2581warten": 5550,
  "\u2581Ausnahme": 5551,
  "Ber\u00fccksichtigung": 5552,
  "\u2581anmelden": 5553,
  "\u2581Audio": 5554,
  "\u2581CH": 5555,
  "\u2581Select": 5556,
  "\u2581schrieb": 5557,
  "\u2581Eurostat": 5558,
  "kan": 5559,
  "\u2581affected": 5560,
  "\u2581MP": 5561,
  "non": 5562,
  "\u2581atmosphere": 5563,
  "field": 5564,
  "\u2581extended": 5565,
  "\u2581courses": 5566,
  "\u2581legen": 5567,
  "\u2581Fahr": 5568,
  "\u2581Zugriffe": 5569,
  "\u2581Ber": 5570,
  "\u2581Dein": 5571,
  "rot": 5572,
  "\u2581getroffen": 5573,
  "zo": 5574,
  "\u2581tried": 5575,
  "gut": 5576,
  "\u2581Zahlung": 5577,
  "\u2581guys": 5578,
  "oni": 5579,
  "\u258151": 5580,
  "GA": 5581,
  "\u2581y": 5582,
  "\u258172": 5583,
  "pp": 5584,
  "iere": 5585,
  "\u2581Dollar": 5586,
  "\u2581Kunststoff": 5587,
  "point": 5588,
  "\u2581Schwierigkeiten": 5589,
  "\u2581pers\u00f6nlichen": 5590,
  "\u2581currency": 5591,
  "\u2581Leistungs": 5592,
  "vel": 5593,
  "\u2581aktiv": 5594,
  "yn": 5595,
  "-6": 5596,
  "\u2581Sol": 5597,
  "\u258156": 5598,
  "\u2581Gro": 5599,
  "\u2581Reisen": 5600,
  "ord": 5601,
  "\u2581Zahlen": 5602,
  "\u25812:": 5603,
  "\u2581vorher": 5604,
  "well": 5605,
  "\u2581Ger\u00e4t": 5606,
  "king": 5607,
  "\u2581chosen": 5608,
  "\u2581electricity": 5609,
  "\u2581Ok": 5610,
  "-12": 5611,
  "gr\u00f6\u00dfe": 5612,
  "\u2581Garden": 5613,
  "\u2581beitragen": 5614,
  "\u2581sch\u00f6nen": 5615,
  "hm": 5616,
  "\u2581n\u00e4her": 5617,
  "eller": 5618,
  "\u2581protected": 5619,
  "\u2581leisten": 5620,
  "\u2581eingef\u00fchrt": 5621,
  "\u2581Christmas": 5622,
  "\u2581Noch": 5623,
  "\u2581wild": 5624,
  "cht": 5625,
  "\u2581accessible": 5626,
  "ient": 5627,
  "\u2581soft": 5628,
  "\u2581sleep": 5629,
  "\u2581800": 5630,
  "\u25811984": 5631,
  "\u2581Montag": 5632,
  "\u2581Tipps": 5633,
  "\u2581song": 5634,
  "\u2581maintain": 5635,
  "\u2581D\u00e4nemark": 5636,
  "leben": 5637,
  "\u2581swimming": 5638,
  "\u2581Nu": 5639,
  "PS": 5640,
  "\u2581cent": 5641,
  "\u2581guter": 5642,
  "\u2581Joint": 5643,
  "\u2581Einklang": 5644,
  "\u2581Verpflichtungen": 5645,
  "ore": 5646,
  "las": 5647,
  "\u2581Mu": 5648,
  "\u2581motor": 5649,
  "\u2581educational": 5650,
  "\u2581useful": 5651,
  "2017": 5652,
  "\u2581instance": 5653,
  "\u2581Fl\u00fcge": 5654,
  "\u2581Obwohl": 5655,
  "\u2581Institutionen": 5656,
  "\u2581Zi": 5657,
  "ova": 5658,
  "\u2581bought": 5659,
  "\u2581trotz": 5660,
  "\u2581stated": 5661,
  "\u2581objects": 5662,
  "ay": 5663,
  "\u2581Planung": 5664,
  "\u2581deutsche": 5665,
  "\u2581lies": 5666,
  "\u2581hervor": 5667,
  "\u2581Einfluss": 5668,
  ".10.": 5669,
  "ATION": 5670,
  "\u2581Theater": 5671,
  "\u2581Kom": 5672,
  "\u2581festgestellt": 5673,
  "\u2581SA": 5674,
  "\u2581Cur": 5675,
  "\u2581Micro": 5676,
  "\u2581FAQ": 5677,
  "schlag": 5678,
  "Nr": 5679,
  "\u2581bessere": 5680,
  "\u2581Afrika": 5681,
  "\u2581Friday": 5682,
  "\u2581H\u00f6r": 5683,
  "\u258105": 5684,
  "tte": 5685,
  "\u2581cheap": 5686,
  "\u2581named": 5687,
  "\u2581Aktion": 5688,
  "\u2581Society": 5689,
  "\u2581master": 5690,
  "\u2581output": 5691,
  "pel": 5692,
  "ction": 5693,
  "\u2581Erst": 5694,
  "\u2581dates": 5695,
  "bis": 5696,
  "\u2581Inhalte": 5697,
  "ata": 5698,
  "\u2581sch\u00fctzen": 5699,
  "\u2581committee": 5700,
  "\u2581exist": 5701,
  "\u2581title": 5702,
  "\u2581anzu": 5703,
  "halten": 5704,
  "83": 5705,
  "\u2581urban": 5706,
  "ld": 5707,
  "\u2581Pop": 5708,
  "\u2581Sonne": 5709,
  "BAR": 5710,
  "ock": 5711,
  "\u2581\u00d6": 5712,
  "\u2581proper": 5713,
  "\u2581par": 5714,
  "\u2581Further": 5715,
  "\u258122.": 5716,
  "\u2581Dem": 5717,
  "\u2581teilweise": 5718,
  "General": 5719,
  "produktion": 5720,
  "u\u00df": 5721,
  "nic": 5722,
  "\u2581initiatives": 5723,
  "\u2581tritt": 5724,
  "reg": 5725,
  "\u2581KMU": 5726,
  "\u2581Fo": 5727,
  "\u2581Inseln": 5728,
  "\u2581Preisen": 5729,
  "\u2581Sta": 5730,
  "MI": 5731,
  "\u2581Format": 5732,
  "\u2581Edition": 5733,
  "\u2581marked": 5734,
  "\u2581\u00fcberpr\u00fcfen": 5735,
  "\u2581Freitag": 5736,
  "\u2581temperatures": 5737,
  "\u2581unless": 5738,
  "\u2581Joseph": 5739,
  "\u2581Before": 5740,
  "ank": 5741,
  "\u2581drawn": 5742,
  "\u2581Every": 5743,
  "\u2581Protection": 5744,
  "\u2581gew\u00e4hrt": 5745,
  "\u2581poor": 5746,
  "\u2581lag": 5747,
  "oth": 5748,
  "\u2581Children": 5749,
  "\u2581Pension": 5750,
  "\u2581Sports": 5751,
  "karte": 5752,
  "LO": 5753,
  "\u2581Johannes": 5754,
  "\u2581Leiter": 5755,
  "\u2581practices": 5756,
  "\u2581Urteil": 5757,
  "tet": 5758,
  "\u2581H\u00e4lfte": 5759,
  "\u2581Ba": 5760,
  "\u00e4t": 5761,
  "\u2581minute": 5762,
  "\u2581Kurs": 5763,
  "\u2581Werke": 5764,
  "fin": 5765,
  "\u2581besch\u00e4ftigt": 5766,
  "\u2581implement": 5767,
  "\u2581planned": 5768,
  "\u2581formal": 5769,
  "/5": 5770,
  "uf": 5771,
  "cur": 5772,
  "\u2581EWSA": 5773,
  "\u2581modernen": 5774,
  "\u2581Sonntag": 5775,
  "\u2581Mediterranean": 5776,
  "els": 5777,
  "\u2581Road": 5778,
  "list": 5779,
  "ith": 5780,
  "ABl": 5781,
  "olo": 5782,
  "\u2581nein": 5783,
  "\u25811970": 5784,
  "\u2581elegant": 5785,
  "\u2581AS": 5786,
  "\u2581best\u00e4tigt": 5787,
  "\u2581director": 5788,
  "tain": 5789,
  "\u2581huge": 5790,
  "ziehen": 5791,
  "ora": 5792,
  "\u2581advantages": 5793,
  "\u2581betroffenen": 5794,
  "\u2581vorbei": 5795,
  "Innen": 5796,
  "\u2581Il": 5797,
  "\u2581w\u00e4ren": 5798,
  "\u25811)": 5799,
  "\u2581geschrieben": 5800,
  "\u2581\u00e4u\u00dferst": 5801,
  "\u2581Fast": 5802,
  "ts": 5803,
  "\u2581guidelines": 5804,
  "Do": 5805,
  "wechsel": 5806,
  "\u2581betrachtet": 5807,
  "\u2581Poly": 5808,
  "\u2581Country": 5809,
  "\u2581Glauben": 5810,
  "7%": 5811,
  "hy": 5812,
  "\u2581su": 5813,
  "\u2581manage": 5814,
  "\u2581slightly": 5815,
  "ash": 5816,
  "\u2581journey": 5817,
  "\u2581expect": 5818,
  "\u2581visits": 5819,
  "zimmer": 5820,
  "\u2581shape": 5821,
  "2%": 5822,
  "\u2581Big": 5823,
  "rich": 5824,
  "\u2581Hof": 5825,
  "bri": 5826,
  "\u2581Delivery": 5827,
  "\u2581inner": 5828,
  "\u2581Welche": 5829,
  "\u2581Wissenschaftler": 5830,
  "\u258198": 5831,
  "\u2581Lehrer": 5832,
  "\u2581guest": 5833,
  "cken": 5834,
  "\u2581(4)": 5835,
  "\u2581Legal": 5836,
  "\u2581l\u00f6sen": 5837,
  "\u2581served": 5838,
  "\u2581Fair": 5839,
  "\u2581parallel": 5840,
  "\u2581beteiligt": 5841,
  "\u2581fix": 5842,
  "\u2581\u00dcberblick": 5843,
  "versicherung": 5844,
  "\u2581FOR": 5845,
  "\u2581Revolution": 5846,
  "oma": 5847,
  "ral": 5848,
  "\u2581firm": 5849,
  "\u2581Zoom": 5850,
  "\u2581tests": 5851,
  "\u2581accounts": 5852,
  "\u2581teaching": 5853,
  "\u2581Boot": 5854,
  "\u2581Rot": 5855,
  "pt": 5856,
  "\u2581Anzeige": 5857,
  "\u2581camera": 5858,
  "\u2581130": 5859,
  "link": 5860,
  "wasser": 5861,
  "schutzerkl\u00e4rung": 5862,
  "\u2581Vereinten": 5863,
  "=": 5864,
  "\u2581Durchschnitt": 5865,
  "PT": 5866,
  "\u2581couple": 5867,
  "\u2581Mus": 5868,
  "\u2581History": 5869,
  "\u2581moving": 5870,
  "\u2581Dokument": 5871,
  "k\u00f6rper": 5872,
  "\u2581pieces": 5873,
  "\u2581Amt": 5874,
  "\u2581creating": 5875,
  "\u2581husband": 5876,
  "\u2581Franz\u00f6sisch": 5877,
  "\u25812-": 5878,
  "\u2581challenge": 5879,
  "\u2581t\u00e4glich": 5880,
  "\u2581tot": 5881,
  "\u2581comfort": 5882,
  "\u258196": 5883,
  "\u2581Technische": 5884,
  "\u2581spiritual": 5885,
  "ney": 5886,
  "\u2581rapporteur": 5887,
  "\u00a4": 5888,
  "\u2581Saturday": 5889,
  "\u2581Einfuhr": 5890,
  "\u258191": 5891,
  "\u2581Those": 5892,
  "\u2581Tradition": 5893,
  "82": 5894,
  "\u2581Niederlande": 5895,
  "\u2581Haar": 5896,
  "\u2581Aufmerksamkeit": 5897,
  "lam": 5898,
  "\u2581Color": 5899,
  "\u2581payments": 5900,
  "rid": 5901,
  "\u2581factor": 5902,
  "\u2581Liefer": 5903,
  "l\u00fc": 5904,
  "\u2581Bern": 5905,
  "\u2581morgen": 5906,
  "gr": 5907,
  "\u2581representative": 5908,
  "\u2581religious": 5909,
  "\u2581Moreover": 5910,
  "\u2581Profile": 5911,
  "ala": 5912,
  "\u2581Fr": 5913,
  "\u2581Boote": 5914,
  "\u2581Pr\u00fcf": 5915,
  "ille": 5916,
  "\u2581proceedings": 5917,
  "\u2581hit": 5918,
  "\u2581Any": 5919,
  "kom": 5920,
  "\u2581Beratung": 5921,
  "och": 5922,
  "\u2581Mittwoch": 5923,
  "\u2581differences": 5924,
  "\u2581Monday": 5925,
  "\u2581erh\u00f6hen": 5926,
  "\u2581Festlegung": 5927,
  "made": 5928,
  "\u2581spend": 5929,
  "\u2581contracts": 5930,
  "\u2581Gal": 5931,
  "\u2581Bek\u00e4mpfung": 5932,
  "\u2581T\u00fcrkei": 5933,
  "pat": 5934,
  "eo": 5935,
  "\u2581W\u00e4rme": 5936,
  "\u2581Type": 5937,
  "struktur": 5938,
  "\u2581Schritte": 5939,
  "\u2581Fran\u00e7ais": 5940,
  "\u2581Richtlinien": 5941,
  "\u2581gemeinschaft": 5942,
  "holz": 5943,
  "\u2581Spe": 5944,
  "\u25814-": 5945,
  "\u2581besucht": 5946,
  "\u2581historischen": 5947,
  "\u2581Zusammen": 5948,
  "8%": 5949,
  "\u2581identified": 5950,
  "\u2581Sonnen": 5951,
  "\u2581vermeiden": 5952,
  "\u2581gewinnen": 5953,
  "\u2581powers": 5954,
  "\u2581Earth": 5955,
  "\u2581preparation": 5956,
  "\u2581Guests": 5957,
  "\u2581Str": 5958,
  "\u25811983": 5959,
  "\u2581Empfehlungen": 5960,
  "\u2581Organ": 5961,
  "\u2581Holy": 5962,
  "\u2581liebe": 5963,
  "\u2581Eis": 5964,
  "\u2581investigation": 5965,
  "einheit": 5966,
  "\u2581claim": 5967,
  "\u2581Costa": 5968,
  "\u2581Voraussetzungen": 5969,
  "CE": 5970,
  "vert": 5971,
  "\u2581lie\u00df": 5972,
  "\u2581eigenes": 5973,
  "\u2581wasn": 5974,
  "gue": 5975,
  "\u2581Op": 5976,
  "\u2581transparent": 5977,
  "\u2581raised": 5978,
  "\u2581meat": 5979,
  "\u2581el": 5980,
  "ks": 5981,
  "schrift": 5982,
  "\u2581assets": 5983,
  "gal": 5984,
  "information": 5985,
  "\u2581extrem": 5986,
  "\u2581Standort": 5987,
  "ique": 5988,
  "bro": 5989,
  "\u2581wei\u00dft": 5990,
  "6%": 5991,
  "\u2581Auftrag": 5992,
  "\u2581kommenden": 5993,
  "\u2581privacy": 5994,
  "\u2581Gesicht": 5995,
  "\u2581untersucht": 5996,
  "\u2581indicated": 5997,
  "\u2581Pri": 5998,
  "\u2581jederzeit": 5999,
  "\u2581vorgesehenen": 6000,
  "mor": 6001,
  "\u2581Wednesday": 6002,
  "\u2581Werkzeug": 6003,
  "\u2581Generation": 6004,
  "\u2581\u203a": 6005,
  "\u2581Heizung": 6006,
  "\u2581Leitung": 6007,
  "\u2581Osten": 6008,
  "4%": 6009,
  "cer": 6010,
  "\u2581Finally": 6011,
  "\u258157": 6012,
  "\u2581Drill": 6013,
  "\u2581H\u00f6chst": 6014,
  "\u2581Fern": 6015,
  "\u2581Chrome": 6016,
  "\u2581freien": 6017,
  "\u2581satellite": 6018,
  "\u2581Programms": 6019,
  "\u2581verkauft": 6020,
  "\u2581ber\u00fccksichtigen": 6021,
  "\u2581Fisch": 6022,
  "\u2581empfohlen": 6023,
  "\u2581bedrooms": 6024,
  "FT": 6025,
  "\u2581presentation": 6026,
  "\u2581rating": 6027,
  "\u2581Inn": 6028,
  "\u2581EP": 6029,
  "\u2581Dazu": 6030,
  "ever": 6031,
  "ably": 6032,
  "\u2581Ring": 6033,
  "\u2581Fort": 6034,
  "\u2581host": 6035,
  "ens": 6036,
  "\u2581zuletzt": 6037,
  "\u2581applies": 6038,
  "\u2581Doppel": 6039,
  "\u00d6": 6040,
  "\u2581gehalten": 6041,
  "300": 6042,
  "\u00dc": 6043,
  "At": 6044,
  "\u2581BO": 6045,
  "\u2581Ideen": 6046,
  "\u2581Menschenrechte": 6047,
  "dorf": 6048,
  "\u2581plastic": 6049,
  "\u2581mid": 6050,
  "\u2581mode": 6051,
  "\u2581\u00fcberall": 6052,
  "\u2581Res": 6053,
  "site": 6054,
  "\u2581begin": 6055,
  "\u2581ausw\u00e4hlen": 6056,
  "\u2581businesses": 6057,
  "\u2581Tele": 6058,
  "COM": 6059,
  "\u2581older": 6060,
  "\u2581Unterschied": 6061,
  "fr": 6062,
  "\u2581driver": 6063,
  "\u2581Kamera": 6064,
  "\u2581Besuche": 6065,
  "\u2581Vision": 6066,
  "rent": 6067,
  "\u2581stone": 6068,
  "\u2581Alt": 6069,
  "\u2581displayed": 6070,
  "organ": 6071,
  "SCH": 6072,
  "\u2581server": 6073,
  "\u2581update": 6074,
  "Shop": 6075,
  "ky": 6076,
  "\u2581Verh\u00e4ltnis": 6077,
  "kra": 6078,
  "barkeit": 6079,
  "/2": 6080,
  "\u2581l\u00e4nger": 6081,
  "\u2581join": 6082,
  "\u2581Tickets": 6083,
  "\u2581recorded": 6084,
  "\u2581Kanada": 6085,
  "\u2581(3": 6086,
  "\u0161": 6087,
  "\u2581fat": 6088,
  "\u2581transmission": 6089,
  "\u2581entscheiden": 6090,
  "On": 6091,
  "\u2581stimmt": 6092,
  "\u2581dient": 6093,
  "\u2581Dia": 6094,
  "\u2581core": 6095,
  "Vor": 6096,
  "\u2581Definition": 6097,
  "\u2581arrival": 6098,
  "more": 6099,
  "\u2581win": 6100,
  "\u2581Spirit": 6101,
  "\u2581fr": 6102,
  "nu": 6103,
  "\u258153": 6104,
  "betrieb": 6105,
  "\u2581Autovermietung": 6106,
  "\u2581legt": 6107,
  "\u2581gebaut": 6108,
  "\u2581benutzen": 6109,
  "\u2581Quick": 6110,
  "\u2581manchmal": 6111,
  "nummer": 6112,
  "\u2581forget": 6113,
  "\u2581iron": 6114,
  "tec": 6115,
  "\u2581weak": 6116,
  "\u2581regionalen": 6117,
  "\u2581stability": 6118,
  "\u2581Iran": 6119,
  "f\u00fchrer": 6120,
  "dar": 6121,
  "schau": 6122,
  "sha": 6123,
  "PL": 6124,
  "\u2581Os": 6125,
  "1)": 6126,
  "\u2581sicherzustellen": 6127,
  "\u2581Bestellung": 6128,
  "AU": 6129,
  "\u2581Smart": 6130,
  "\u2581Louis": 6131,
  "\u2581W\u00e4hlen": 6132,
  "OP": 6133,
  "Mit": 6134,
  "\u2581sa": 6135,
  "\u2581Voll": 6136,
  "\u2581larger": 6137,
  "ants": 6138,
  "\u2581ancient": 6139,
  "Service": 6140,
  "\u2581jungen": 6141,
  "\u2581Betrag": 6142,
  "\u2581teil": 6143,
  "\u2581Casino": 6144,
  "\u2581Brief": 6145,
  "\u2581ergeben": 6146,
  "dll": 6147,
  "\u2581Deutschen": 6148,
  "\u2581Overview": 6149,
  "\u2581compliance": 6150,
  "\u2581Entwicklungen": 6151,
  "\u2581angeboten": 6152,
  "\u2581pick": 6153,
  "\u2581informieren": 6154,
  "\u2581Anerkennung": 6155,
  "\u2581ge\u00f6ffnet": 6156,
  "\u2581Vorbereitung": 6157,
  "sol": 6158,
  "\u2581individuals": 6159,
  "All": 6160,
  "\u2581Shi": 6161,
  "\u2581Hy": 6162,
  "\u2581Ausstattung": 6163,
  "2004": 6164,
  "bb": 6165,
  "\u2581patient": 6166,
  "\u2581reliable": 6167,
  "\u2581Stimme": 6168,
  "\u2581beds": 6169,
  "\u25814,": 6170,
  "\u2581healthy": 6171,
  "\u2581Beziehung": 6172,
  "\u2581soul": 6173,
  "\u2581Danke": 6174,
  "\u2581passed": 6175,
  "\u2581gespeichert": 6176,
  "\u2581doubt": 6177,
  "\u2581stets": 6178,
  "\u2581Arbeitgeber": 6179,
  "\u2581Farm": 6180,
  "ado": 6181,
  "\u2581nachhaltige": 6182,
  "\u2581entstehen": 6183,
  "\u2581duration": 6184,
  "\u2581Muster": 6185,
  "TI": 6186,
  "\u2581miteinander": 6187,
  "\u2581Mach": 6188,
  "\u2581amounts": 6189,
  "\u2581ver\u00e4ndert": 6190,
  "roll": 6191,
  "igt": 6192,
  "\u2581Schw": 6193,
  "rit": 6194,
  "\u2581Line": 6195,
  "\u2581Ganz": 6196,
  "Al": 6197,
  "schein": 6198,
  "quality": 6199,
  "\u2581Sektor": 6200,
  "\u2581Ed": 6201,
  "\u2581Javascript": 6202,
  "\u2581bedroom": 6203,
  "\u2581Berufs": 6204,
  "\u2581ratio": 6205,
  "\u2581maybe": 6206,
  "\u2581CEO": 6207,
  "\u258125.": 6208,
  "/2006": 6209,
  "\u25815-": 6210,
  "\u2581accessories": 6211,
  "\u2581COM": 6212,
  "\u2581testing": 6213,
  "DER": 6214,
  "Com": 6215,
  "\u25811.3": 6216,
  "\u2581Jahrhunderts": 6217,
  "\u2581Religion": 6218,
  "\u2581voller": 6219,
  "\u2581adoption": 6220,
  "\u2581tube": 6221,
  "af": 6222,
  "\u2581Another": 6223,
  "\u2581Vereinbarung": 6224,
  "\u2581Hoffnung": 6225,
  "\u2581cash": 6226,
  "\u2581acts": 6227,
  "\u2581Tre": 6228,
  "\u2581concluded": 6229,
  "\u2581memory": 6230,
  "\u2581falsch": 6231,
  "\u2581Learn": 6232,
  "1%": 6233,
  "ric": 6234,
  "\u2581Song": 6235,
  "\u2581ter": 6236,
  "\u2581EUROPEAN": 6237,
  "\u2581Standards": 6238,
  "\u2581dank": 6239,
  "\u2581manufacturers": 6240,
  "\u2581multiple": 6241,
  "\u2581begr\u00fc\u00dft": 6242,
  "\u2581pretty": 6243,
  "\u2581\u00dcbertragung": 6244,
  "\u2581waiting": 6245,
  "\u2581respective": 6246,
  "\u2581Stiftung": 6247,
  "sbereich": 6248,
  "\u2581perfekt": 6249,
  "\u2581Parkplatz": 6250,
  "\u2581Elemente": 6251,
  "\u2581Gegen": 6252,
  "\u2581coast": 6253,
  "\u2581Conditions": 6254,
  "\u2581vocational": 6255,
  "\u2581vorgelegt": 6256,
  "\u2581Krebs": 6257,
  "\u2581Tar": 6258,
  "\u2581spent": 6259,
  "\u2581Samstag": 6260,
  "\u2581engineering": 6261,
  "\u2581Apple": 6262,
  "\u2581typical": 6263,
  "\u2581entlang": 6264,
  "\u2581resulting": 6265,
  "mut": 6266,
  "\u2581dream": 6267,
  "\u2581Methode": 6268,
  "\u2581Fer": 6269,
  "\u2581zuerst": 6270,
  "\u2581Elektro": 6271,
  "\u2581Jack": 6272,
  "Da": 6273,
  "\u2581session": 6274,
  "\u2581Hinter": 6275,
  "ets": 6276,
  "\u2581vision": 6277,
  "\u2581Sammlung": 6278,
  "\u2581Once": 6279,
  "\u2581Bildungs": 6280,
  "\u2581Statement": 6281,
  "\u2581Accommodation": 6282,
  "das": 6283,
  "\u2581Jehovas": 6284,
  "\u2581komplett": 6285,
  "\u2581Zulassung": 6286,
  "\u2581Bahnhof": 6287,
  "\u2581Rooms": 6288,
  "\u2581einzu": 6289,
  "\u2581Sch\u00fcler": 6290,
  "\u2581K\u00fchlschrank": 6291,
  "\u2581Mercedes": 6292,
  "\u2581Les": 6293,
  "setzung": 6294,
  "EX": 6295,
  "\u2581nat\u00fcrliche": 6296,
  "\u2581ben\u00f6tigt": 6297,
  "\u2581B\u00fccher": 6298,
  "\u2581overview": 6299,
  "\u2581Event": 6300,
  "istischen": 6301,
  "\u2581verbessert": 6302,
  "GB": 6303,
  "\u2581h\u00e4ngt": 6304,
  "h\u00e4": 6305,
  "sort": 6306,
  "\u2581anhand": 6307,
  "\u2581Arzneimittel": 6308,
  "\u2581president": 6309,
  "\u2581taste": 6310,
  "\u25811981": 6311,
  "\u2581Cu": 6312,
  "\u2581Engel": 6313,
  "\u2581entgegen": 6314,
  "br": 6315,
  "\u2581treated": 6316,
  "\u2581forest": 6317,
  "called": 6318,
  "position": 6319,
  "\u2581museum": 6320,
  "systems": 6321,
  "\u2581nat\u00fcrlichen": 6322,
  "\u2581Anna": 6323,
  "\u2581Banken": 6324,
  "\u2581award": 6325,
  "pu": 6326,
  "\u2581User": 6327,
  "ged": 6328,
  "\u2581voraus": 6329,
  "\u2581Garantie": 6330,
  "version": 6331,
  "\u2581Nachdem": 6332,
  "\u2581meist": 6333,
  "\u2581Reg": 6334,
  "Art": 6335,
  "\u2581\u00dcbersetzung": 6336,
  "\u2581heutigen": 6337,
  "ello": 6338,
  "\u2581verhindern": 6339,
  "\u2581Ag": 6340,
  "NA": 6341,
  "\u2581abzu": 6342,
  "\u2581\u00fcbrigen": 6343,
  "\u2581finanziellen": 6344,
  "ological": 6345,
  "mun": 6346,
  "fl\u00e4che": 6347,
  "\u2581Suite": 6348,
  "\u2581gl\u00fccklich": 6349,
  "neu": 6350,
  "\u2581lieben": 6351,
  "HO": 6352,
  "\u2581Casa": 6353,
  "\u2581birth": 6354,
  "uri": 6355,
  "\u2581Autor": 6356,
  "tum": 6357,
  "\u2581Cam": 6358,
  "cl": 6359,
  "\u2581Adam": 6360,
  "\u2581Ansatz": 6361,
  "\u2581Del": 6362,
  "\u2581Lehr": 6363,
  "\u2581Ltd": 6364,
  "with": 6365,
  "\u258162": 6366,
  "Institut": 6367,
  "\u2581Very": 6368,
  "\u2581Teilnahme": 6369,
  "\u2581Ti": 6370,
  "\u2581appears": 6371,
  "\u2581listen": 6372,
  "zig": 6373,
  "netz": 6374,
  "\u2581Update": 6375,
  "\u2581Tourismus": 6376,
  "\u2581Puzzle": 6377,
  "\u2581Amtsblatt": 6378,
  "\u2581imp": 6379,
  "\u2581Pr\u00e4sidenten": 6380,
  "\u2581geltenden": 6381,
  "funktion": 6382,
  "ppen": 6383,
  "\u2581sobald": 6384,
  "\u2581Katalog": 6385,
  "\u2581organizations": 6386,
  "lot": 6387,
  "\u25811982": 6388,
  "\u2581Lei": 6389,
  "\u2581Sim": 6390,
  "DS": 6391,
  "\u2581Freude": 6392,
  "\u2581conflict": 6393,
  "OC": 6394,
  "\u2581quick": 6395,
  "\u2581Gebieten": 6396,
  "\u2581Account": 6397,
  "\u2581register": 6398,
  "ij": 6399,
  "\u2581experienced": 6400,
  "\u2581mark": 6401,
  "\u2581African": 6402,
  "\u2581MA": 6403,
  "\u2581Alexander": 6404,
  "\u2581List": 6405,
  "\u2581orders": 6406,
  "\u2581Pin": 6407,
  "\u2581Rating": 6408,
  "ori": 6409,
  "\u2581requested": 6410,
  "\u2581exclusive": 6411,
  "istische": 6412,
  "\u2581James": 6413,
  "\u258124.": 6414,
  "\u2581absolute": 6415,
  "matic": 6416,
  "\u2581sex": 6417,
  "\u2581conclusion": 6418,
  "\u2581Low": 6419,
  "qua": 6420,
  "\u2581gr": 6421,
  "IR": 6422,
  "Wenn": 6423,
  "\u2581fi": 6424,
  "\u2581entitled": 6425,
  "\u2581limits": 6426,
  "\u2581Mehrheit": 6427,
  "\u2581survey": 6428,
  "\u2581strengthen": 6429,
  "\u258150%": 6430,
  "lip": 6431,
  "\u2581unabh\u00e4ngig": 6432,
  "sky": 6433,
  "\u2581Las": 6434,
  "\u2581settings": 6435,
  "\u2581chemical": 6436,
  "stehen": 6437,
  "ification": 6438,
  "typ": 6439,
  "\u2581element": 6440,
  "\u2581Dar": 6441,
  "\u2581amending": 6442,
  "\u2581obtain": 6443,
  "ram": 6444,
  "\u2581Sat": 6445,
  "\u2581Net": 6446,
  "oid": 6447,
  "\u258158": 6448,
  "\u2581Schloss": 6449,
  "\u2581Category": 6450,
  "\u2581heavy": 6451,
  "\u2581strategic": 6452,
  "\u2581spring": 6453,
  "\u00e4l": 6454,
  "\u2581Diskussion": 6455,
  "\u2581Allgemeine": 6456,
  "\u2581operators": 6457,
  "\u2581gegebenenfalls": 6458,
  "itis": 6459,
  "\u2581Schlaf": 6460,
  "\u2581notes": 6461,
  "Bo": 6462,
  "\u2581author": 6463,
  "\u2581WiFi": 6464,
  "\u2581feet": 6465,
  "\u2581inkl": 6466,
  "\u2581leads": 6467,
  "\u2581franz\u00f6sischen": 6468,
  "CI": 6469,
  "\u2581driving": 6470,
  "\u2581consideration": 6471,
  "\u2581Case": 6472,
  "\u2581Pflege": 6473,
  "\u2581copy": 6474,
  "\u2581Charter": 6475,
  "\u2581Nor": 6476,
  "\u2581Cre": 6477,
  "\u2581furniture": 6478,
  "\u2581frame": 6479,
  "bre": 6480,
  "\u2581spezielle": 6481,
  "\u2581Entwurf": 6482,
  "\u2581stuff": 6483,
  "9%": 6484,
  "\u2581Rund": 6485,
  "\u2581Antworten": 6486,
  "\u2581beschlossen": 6487,
  "\u2581Ministry": 6488,
  "\u2581Komfort": 6489,
  "\u2581till": 6490,
  "\u2581existence": 6491,
  "steuer": 6492,
  "lle": 6493,
  "\u2581beauty": 6494,
  "\u2581Chapter": 6495,
  "\u2581Has": 6496,
  "\u2581hoffe": 6497,
  "setzen": 6498,
  "gebiet": 6499,
  "\u2581Schreiben": 6500,
  "\u2581Fan": 6501,
  "\u2581automatic": 6502,
  "gewicht": 6503,
  "\u2581Dir": 6504,
  "\u2581Niveau": 6505,
  "wind": 6506,
  "\u258129.": 6507,
  "\u2581Full": 6508,
  "\u2581Architektur": 6509,
  "\u2581Comp": 6510,
  "\u2581Lizenz": 6511,
  "ng": 6512,
  "\u258123.": 6513,
  "PR": 6514,
  "nnen": 6515,
  "\u2581ho": 6516,
  "\u2581recognition": 6517,
  "\u2581aims": 6518,
  "\u2581easier": 6519,
  "\u258176": 6520,
  "\u00f3n": 6521,
  "\u2581recommendations": 6522,
  "0,00": 6523,
  "IE": 6524,
  "ole": 6525,
  "\u2581solid": 6526,
  "\u2581Ce": 6527,
  "\u2581improvement": 6528,
  "\u2581Ma\u00df": 6529,
  "gli": 6530,
  "av": 6531,
  "\u2581partnership": 6532,
  "uv": 6533,
  "\u2581department": 6534,
  "text": 6535,
  "\u00e8": 6536,
  "\u2581Justice": 6537,
  "Li": 6538,
  "\u2581Th": 6539,
  "\u2581Frist": 6540,
  "\u2581moderne": 6541,
  "sport": 6542,
  "\u2581coordination": 6543,
  "\u2581Resort": 6544,
  "\u2581Bor": 6545,
  "\u2581stored": 6546,
  "\u2581Waffen": 6547,
  "\u2581VER": 6548,
  "\u2581returned": 6549,
  "Team": 6550,
  "\u2581claims": 6551,
  "\u2581gerecht": 6552,
  "\u2581despite": 6553,
  "\u2581h\u00f6her": 6554,
  "\u2581Change": 6555,
  "\u2581ourselves": 6556,
  "\u2581Export": 6557,
  "\u2581stellte": 6558,
  "\u2581Gemeinsamen": 6559,
  "zy": 6560,
  "lag": 6561,
  "\u2581tomorrow": 6562,
  "\u2581Additional": 6563,
  "bericht": 6564,
  "\u2581Hinsicht": 6565,
  "\u2581Fraktion": 6566,
  "II": 6567,
  "\u258189": 6568,
  "\u2581haupts\u00e4chlich": 6569,
  "\u2581Seele": 6570,
  "gie": 6571,
  "\u2581feed": 6572,
  "\u2581gewonnen": 6573,
  "\u2581Komponenten": 6574,
  "\u2581langen": 6575,
  "\u2581mountains": 6576,
  "\u2581schneller": 6577,
  "PE": 6578,
  "\u2581Zucker": 6579,
  "\u2581Erw\u00e4gung": 6580,
  "\u2581Basic": 6581,
  "\u2581angesehen": 6582,
  "beschreibung": 6583,
  "Zu": 6584,
  "\u2581Klasse": 6585,
  "\u2581verursacht": 6586,
  "\u2581Kra": 6587,
  "elli": 6588,
  "\u2581extensive": 6589,
  "fach": 6590,
  "\u2581Freizeit": 6591,
  "\u2581girls": 6592,
  "\u2581Gebiete": 6593,
  "\u2581valid": 6594,
  "\u2581specifically": 6595,
  "\u2581meines": 6596,
  "ump": 6597,
  "\u2581helps": 6598,
  "\u2581signs": 6599,
  "\u2581Cross": 6600,
  "\u2581stress": 6601,
  "\u2581Koordinierung": 6602,
  "\u2581erhielt": 6603,
  "\u2581showed": 6604,
  "\u2581discussed": 6605,
  "\u2581Milliarden": 6606,
  "anten": 6607,
  "\u2581PA": 6608,
  "\u2581participate": 6609,
  "eine": 6610,
  "\u2581pr\u00e4sentiert": 6611,
  "gesch\u00e4ft": 6612,
  "\u2581seat": 6613,
  "\u2581zumindest": 6614,
  "\u2581Steuern": 6615,
  "\u2581rural": 6616,
  "Ad": 6617,
  "sie": 6618,
  "\u2581Faktoren": 6619,
  "\u2581fa": 6620,
  "wing": 6621,
  "\u2581ahead": 6622,
  "\u2581bear": 6623,
  "\u2581depends": 6624,
  "\u2581Schrift": 6625,
  "\u2581neun": 6626,
  "\u2581university": 6627,
  "\u2581contrast": 6628,
  "\u2581auto": 6629,
  "\u2581heating": 6630,
  "Di": 6631,
  "sm\u00f6glichkeiten": 6632,
  "\u2581dangerous": 6633,
  "lie": 6634,
  "\u2581SMEs": 6635,
  "\u2581Lassen": 6636,
  "\u2581W\u00e4hrung": 6637,
  "\u2581Protokoll": 6638,
  "\u2581Registrieren": 6639,
  "\u2581snow": 6640,
  "handel": 6641,
  "\u2581boats": 6642,
  "\u2581Sound": 6643,
  "mission": 6644,
  "\u2581fordert": 6645,
  "\u2581Angel": 6646,
  "\u2581offices": 6647,
  "\u2581Vielzahl": 6648,
  "Sa": 6649,
  "\u2581neither": 6650,
  "\u2581union": 6651,
  "\u2581f\u00e4llt": 6652,
  "\u2581Industrial": 6653,
  "\u2581Word": 6654,
  "\u2581Him": 6655,
  "\u2581sage": 6656,
  "\u2581erscheinen": 6657,
  "\u2581Schweizer": 6658,
  "\u2581Instrumente": 6659,
  "\u2581freuen": 6660,
  "lation": 6661,
  "\u2581wear": 6662,
  "zeichen": 6663,
  "\u25811979": 6664,
  "\u258124-": 6665,
  "maschine": 6666,
  "\u2581Aluminium": 6667,
  "elt": 6668,
  "kreis": 6669,
  "\u2581produziert": 6670,
  "\u2581upper": 6671,
  "\u2581Indien": 6672,
  "(3)": 6673,
  "\u2581agriculture": 6674,
  "\u2581finished": 6675,
  "://": 6676,
  "DR": 6677,
  "\u2581Finland": 6678,
  "\u2581smaller": 6679,
  "\u2581hilft": 6680,
  "\u2581Love": 6681,
  "\u2581Islands": 6682,
  "\u2581damals": 6683,
  "geben": 6684,
  "\u2581broad": 6685,
  "European": 6686,
  "\u2581Sil": 6687,
  "\u258187": 6688,
  "\u2581Campingplatz": 6689,
  "\u2581announced": 6690,
  "tsch": 6691,
  "uc": 6692,
  "\u2581organic": 6693,
  "\u2581fl": 6694,
  "\u2581definition": 6695,
  "\u2581Performance": 6696,
  "\u2581committed": 6697,
  "\u2581siehe": 6698,
  "gl": 6699,
  "\u2581Austrian": 6700,
  "met": 6701,
  "\u2581menschlichen": 6702,
  "\u2581resistance": 6703,
  "\u2581Geschwindigkeit": 6704,
  "\u2581Kredit": 6705,
  "\u2581Wohnzimmer": 6706,
  "FI": 6707,
  "punkte": 6708,
  "\u2581owner": 6709,
  "leitung": 6710,
  "\u2581smart": 6711,
  "cul": 6712,
  "\u2581Fu": 6713,
  "erweise": 6714,
  "\u2581aufzu": 6715,
  "\u2581conduct": 6716,
  "\u2581Gro\u00dfbritannien": 6717,
  "\u2581Ram": 6718,
  "\u2581Haustiere": 6719,
  "\u2581Treffen": 6720,
  "\u2581sorgt": 6721,
  "\u2581Anschluss": 6722,
  "TEN": 6723,
  "ima": 6724,
  "\u2581Bel": 6725,
  "\u2581Umsatz": 6726,
  "\u258199": 6727,
  "\u2581duties": 6728,
  "\u2581niemand": 6729,
  "400": 6730,
  "rest": 6731,
  "\u2581evil": 6732,
  "\u2581Far": 6733,
  "wood": 6734,
  "ena": 6735,
  "\u2581Allerdings": 6736,
  "itt": 6737,
  "\u2581Buchung": 6738,
  "ava": 6739,
  "inger": 6740,
  "\u2581m\u00f6gen": 6741,
  "OT": 6742,
  "\u2581submit": 6743,
  "\u2581classic": 6744,
  "\u2581consequences": 6745,
  "max": 6746,
  "Am": 6747,
  "nie": 6748,
  "\u2581ye": 6749,
  "projekt": 6750,
  "\u2581Tagung": 6751,
  "\u2581Entwicklungs": 6752,
  "\u2581Schluss": 6753,
  "\u2581str": 6754,
  "\u2581Shopping": 6755,
  "ger\u00e4t": 6756,
  "\u2581fe": 6757,
  "\u2581increasingly": 6758,
  "\u2581Fax": 6759,
  "ew": 6760,
  "\u2581firms": 6761,
  "\u2581female": 6762,
  "UL": 6763,
  "\u2581holding": 6764,
  "\u2581ensuring": 6765,
  "\u2581op": 6766,
  "\u2581Laser": 6767,
  "\u2581Professional": 6768,
  "\u2581percentage": 6769,
  "enberg": 6770,
  "tier": 6771,
  "\u2581stands": 6772,
  "\u2581definiert": 6773,
  "\u2581equivalent": 6774,
  "\u2581hoher": 6775,
  "\u2581supporting": 6776,
  "\u2581appeal": 6777,
  "alter": 6778,
  "\u2581Partnerschaft": 6779,
  "xi": 6780,
  "\u2581Risiken": 6781,
  "TO": 6782,
  "tieren": 6783,
  "\u2581Lang": 6784,
  "\u2581Berichte": 6785,
  "\u2581technological": 6786,
  "\u2581concrete": 6787,
  "\u2581Literatur": 6788,
  "\u2581outdoor": 6789,
  "\u2581einfache": 6790,
  "\u2581Advanced": 6791,
  "\u2581verfolgt": 6792,
  "\u2581pers\u00f6nliche": 6793,
  "nde": 6794,
  "ics": 6795,
  "\u2581chain": 6796,
  "\u2581ST": 6797,
  "\u2581kids": 6798,
  "\u2581boy": 6799,
  "\u2581Arbeitsmarkt": 6800,
  "\u2581Fett": 6801,
  "\u2581richtigen": 6802,
  "vid": 6803,
  "\u2581Salzburg": 6804,
  "IF": 6805,
  "\u2581cleaning": 6806,
  "\u2581Common": 6807,
  "\u2581married": 6808,
  "\u2581recovery": 6809,
  "ziel": 6810,
  "\u2581Australien": 6811,
  "\u2581Krankheit": 6812,
  "\u2581rock": 6813,
  "ante": 6814,
  "\u2581GDP": 6815,
  "\u2581Vertrauen": 6816,
  "\u2581represent": 6817,
  "Berichterstatter": 6818,
  "\u2581Vielfalt": 6819,
  "\u2581contributions": 6820,
  "\u2581closely": 6821,
  "\u2581translation": 6822,
  "\u2581secondary": 6823,
  "\u2581ausreichend": 6824,
  "\u2581Zivil": 6825,
  "lager": 6826,
  "\u2581Demokratie": 6827,
  "sitz": 6828,
  "\u2581kontaktieren": 6829,
  "\u2581covers": 6830,
  "\u2581schicken": 6831,
  "\u258186": 6832,
  "\u2581(4": 6833,
  "\u2581missing": 6834,
  "\u2581Copyright": 6835,
  "\u2581pa": 6836,
  "\u2581F\u00f6rder": 6837,
  "\u2581sheet": 6838,
  "\u2581Second": 6839,
  "pet": 6840,
  "\u2581ingredients": 6841,
  "\u258197": 6842,
  "\u2581li": 6843,
  "\u2581ersetzt": 6844,
  "\u2581MwSt": 6845,
  "eng": 6846,
  "\u2581Budapest": 6847,
  "ban": 6848,
  "\u2581Studenten": 6849,
  "\u2581IS": 6850,
  "\u258177": 6851,
  "\u2581Ware": 6852,
  "\u258184": 6853,
  "\u2581anschlie\u00dfend": 6854,
  "law": 6855,
  "\u2581Display": 6856,
  "\u2581Meeting": 6857,
  "\u2581Bro": 6858,
  "\u2581Geschenk": 6859,
  "lat": 6860,
  "\u2581contained": 6861,
  "\u2581Allgemeinen": 6862,
  "\u2581reicht": 6863,
  "az": 6864,
  "\u2581occur": 6865,
  "\u2581entrance": 6866,
  "\u2581Kontroll": 6867,
  "\u2581Werbung": 6868,
  "ule": 6869,
  "sprozess": 6870,
  "\u258159": 6871,
  "\u2581erfolgen": 6872,
  "\u2581Schon": 6873,
  "\u2581grow": 6874,
  "ii": 6875,
  "ua": 6876,
  "\u2581n\u00f6tig": 6877,
  "\u258161": 6878,
  "\u2581Einstellung": 6879,
  "\u2581soweit": 6880,
  "\u2581eingerichtet": 6881,
  "\u2581straight": 6882,
  "\u2581Mikro": 6883,
  "\u2581wesentlichen": 6884,
  "AB": 6885,
  "\u2581\u25a0": 6886,
  "Nach": 6887,
  "sektor": 6888,
  "\u2581packaging": 6889,
  "\u2581comply": 6890,
  "europa": 6891,
  "\u2581operational": 6892,
  "\u2581Ms": 6893,
  "hor": 6894,
  "\u2581command": 6895,
  "\u2581painting": 6896,
  "\u2581solcher": 6897,
  "\u2581Investment": 6898,
  "As": 6899,
  "\u2581flower": 6900,
  "\u2581Wird": 6901,
  "\u2581leid": 6902,
  "\u2581Ma\u00dfnahme": 6903,
  "\u2581herunterladen": 6904,
  "\u2581Atmosph\u00e4re": 6905,
  "\u2581mittels": 6906,
  "\u2018": 6907,
  "\u2581j\u00e4hrlich": 6908,
  "Ar": 6909,
  "\u2581Image": 6910,
  "\u2581l\u00e4uft": 6911,
  "\u2581Town": 6912,
  "\u2581auszu": 6913,
  "\u2581bestimmter": 6914,
  "ward": 6915,
  "\u2581langsam": 6916,
  "Programm": 6917,
  "right": 6918,
  "\u2581Verpflichtung": 6919,
  "produkte": 6920,
  "\u2581sir": 6921,
  "ified": 6922,
  "ee": 6923,
  "\u2581Women": 6924,
  "\u2581unge": 6925,
  "\u2581garantiert": 6926,
  "\u2581deaktiviert": 6927,
  "\u2581raw": 6928,
  "\u2581industries": 6929,
  "\u2581angegeben": 6930,
  "\u2581Mund": 6931,
  "\u2581trend": 6932,
  "\u2581Sex": 6933,
  "\u2581genehmigt": 6934,
  "\u2581statements": 6935,
  "\u2581Vorhaben": 6936,
  "\u2581stable": 6937,
  "\u2581zus\u00e4tzlichen": 6938,
  "\u2581Arbeiter": 6939,
  "\u2581Em": 6940,
  "win": 6941,
  "\u2581index": 6942,
  "\u2581110": 6943,
  "\u2581Spring": 6944,
  "\u2581nutzt": 6945,
  "\u2581Beim": 6946,
  "\u2581leader": 6947,
  "\u2581Model": 6948,
  "Se": 6949,
  "BE": 6950,
  "\u25812)": 6951,
  "eten": 6952,
  "til": 6953,
  "cent": 6954,
  "CA": 6955,
  "\u2581medicine": 6956,
  "\u2581Malta": 6957,
  "\u2581advertising": 6958,
  "\u2581LORD": 6959,
  "\u2581provider": 6960,
  "\u2581ice": 6961,
  "\u2581Vol": 6962,
  "\u2581affect": 6963,
  "\u2581tri": 6964,
  "\u2581managed": 6965,
  "\u2581database": 6966,
  "\u2581Quartal": 6967,
  "hard": 6968,
  "\u2581Kreuz": 6969,
  "\u258122:16:": 6970,
  "\u2581Their": 6971,
  "\u2581erscheint": 6972,
  "\u2581load": 6973,
  "\u2581Gre": 6974,
  "\u2581Meeres": 6975,
  "\u2581jene": 6976,
  "zel": 6977,
  "\u2581latter": 6978,
  "\u2581Boat": 6979,
  "\u2581h\u00f6here": 6980,
  "\u2581Amerika": 6981,
  "ESS": 6982,
  "\u2581represents": 6983,
  "\u2581Rede": 6984,
  "\u2581wesentlich": 6985,
  "\u2581youth": 6986,
  "\u2581zone": 6987,
  "\u2581ungef\u00e4hr": 6988,
  "\u2581Engineering": 6989,
  "\u2581instructions": 6990,
  "\u258166": 6991,
  "\u2581Quality": 6992,
  "\u2581shares": 6993,
  "\u2581becoming": 6994,
  "\u2581substance": 6995,
  "\u2581nieder": 6996,
  "\u2581Landschaft": 6997,
  "\u2581Latin": 6998,
  "\u2581Route": 6999,
  "1999": 7000,
  "\u2581collaboration": 7001,
  "\u2581Aussicht": 7002,
  "verwaltung": 7003,
  "\u2581observed": 7004,
  "\u2581Klicken": 7005,
  "\u2581certificate": 7006,
  "\u2581aimed": 7007,
  "\u2581Premium": 7008,
  "\u2581ME": 7009,
  "\u2581Listen": 7010,
  "tron": 7011,
  "\u2581Middle": 7012,
  "\u2581Fahrer": 7013,
  "\u2581continues": 7014,
  "\u2581Siehe": 7015,
  "What": 7016,
  "stra": 7017,
  "\u2581Zusatz": 7018,
  "\u2581departure": 7019,
  "\u2581possibilities": 7020,
  "\u2581Merkmale": 7021,
  "\u2581Ak": 7022,
  "gate": 7023,
  "\u2581gro\u00dfes": 7024,
  "\u2581Block": 7025,
  "hilfe": 7026,
  "\u2581depending": 7027,
  "\u2581anbieten": 7028,
  "\u2581architecture": 7029,
  "\u2581Academy": 7030,
  "\u2581west": 7031,
  "\u2581zeit": 7032,
  "icht": 7033,
  "Man": 7034,
  "\u2581Richard": 7035,
  "\u258193": 7036,
  "\u2581shared": 7037,
  "\u2581outstanding": 7038,
  "qualit\u00e4t": 7039,
  "\u2581Rand": 7040,
  "\u2581competitive": 7041,
  "\u2581Space": 7042,
  "\u2581Level": 7043,
  "\u2581finanzielle": 7044,
  "\u2581Fl\u00e4che": 7045,
  "\u2581\u00fcbernehmen": 7046,
  "\u2581Available": 7047,
  "\u2581Industry": 7048,
  "including": 7049,
  "\u2581tief": 7050,
  "\u25811.2": 7051,
  "\u2581Stellung": 7052,
  "\u2581Spielfrei": 7053,
  "kor": 7054,
  "\u2581cycle": 7055,
  "\u2581Easy": 7056,
  "\u2581wouldn": 7057,
  "r\u00fc": 7058,
  "\u2581Mobilit\u00e4t": 7059,
  "tle": 7060,
  "anda": 7061,
  "oo": 7062,
  "\u2581ra": 7063,
  "\u2581Standpunkt": 7064,
  "\u2581binding": 7065,
  "\u2581trends": 7066,
  "schule": 7067,
  "\u2581Dokumente": 7068,
  "\u2581einzigen": 7069,
  "\u2581sights": 7070,
  "\u00dcber": 7071,
  "rk": 7072,
  "\u2581Schwerpunkt": 7073,
  "\u2581Bu": 7074,
  "3)": 7075,
  "\u2581Dach": 7076,
  "\u2581Foreign": 7077,
  "\u2581Ah": 7078,
  "\u2581wusste": 7079,
  "ICH": 7080,
  "\u2581po": 7081,
  "bil": 7082,
  "\u2581successfully": 7083,
  "\u2581Vereinigte": 7084,
  "tom": 7085,
  "\u2581Speicher": 7086,
  "hotel": 7087,
  "\u2581Facilities": 7088,
  "\u2581Cat": 7089,
  "\u2581promotion": 7090,
  "\u2581zug\u00e4nglich": 7091,
  "tis": 7092,
  "\u2581Mrd": 7093,
  "\u2581debt": 7094,
  "\u2581gain": 7095,
  "ament": 7096,
  "\u2581Stabilit\u00e4t": 7097,
  "\u2581failure": 7098,
  "\u2581removed": 7099,
  "\u2581identify": 7100,
  "\u2581perform": 7101,
  "put": 7102,
  "\u2581gew\u00e4hrleistet": 7103,
  "ira": 7104,
  "\u258110%": 7105,
  "\u2581consultation": 7106,
  "\u2581Environment": 7107,
  "\u2581acid": 7108,
  "erei": 7109,
  "pra": 7110,
  "\u2581OS": 7111,
  "\u2581Kat": 7112,
  "\u2581Leitlinien": 7113,
  "\u2581Ausfuhr": 7114,
  "\u2581Cer": 7115,
  "\u2581increases": 7116,
  "\u2581bildet": 7117,
  "SS": 7118,
  "\u2581secret": 7119,
  "\u2581Formular": 7120,
  "\u2581brain": 7121,
  "f\u00fchren": 7122,
  "schw": 7123,
  "preise": 7124,
  "\u2581dance": 7125,
  "\u2581agency": 7126,
  "\u2581locations": 7127,
  "\u2581Med": 7128,
  "nahme": 7129,
  "ray": 7130,
  "\u010d": 7131,
  "\u2581Cloud": 7132,
  "\u2581Compare": 7133,
  "\u2581Kit": 7134,
  "\u2581Fri": 7135,
  "\u25812007-11-1": 7136,
  "gericht": 7137,
  "\u2581silver": 7138,
  "\u2581Wesen": 7139,
  "\u2581positions": 7140,
  "VA": 7141,
  "\u2581Kaiser": 7142,
  "\u2581controlled": 7143,
  "\u2581Place": 7144,
  "\u2581dagegen": 7145,
  "\u2581wenigen": 7146,
  "rang": 7147,
  "\u2581Ban": 7148,
  "run": 7149,
  "\u2581wollten": 7150,
  "\u2581tourism": 7151,
  "\u2581critical": 7152,
  "\u2581Z\u00fcrich": 7153,
  "\u2581represented": 7154,
  "\u2581gepr\u00fcft": 7155,
  "\u2581Stop": 7156,
  "NE": 7157,
  "\u2581Extra": 7158,
  "\u2581prepare": 7159,
  "verst\u00e4ndlich": 7160,
  "geschwindigkeit": 7161,
  "\u2581F\u00e4higkeit": 7162,
  "haltung": 7163,
  "\u2581Zudem": 7164,
  "\u2581nine": 7165,
  "\u2581Cho": 7166,
  "\u2581Lernen": 7167,
  "\u2581noted": 7168,
  "\u2581Dutch": 7169,
  "\u2581Bedarf": 7170,
  "\u2581MB": 7171,
  "\u2581lived": 7172,
  "ssystem": 7173,
  "Qu": 7174,
  "\u2581appointed": 7175,
  "technologie": 7176,
  "\u2581Japanese": 7177,
  "\u2581governments": 7178,
  "\u2581Regierungen": 7179,
  "\u2581gef\u00f6rdert": 7180,
  "\u2581leider": 7181,
  "\u2581hinzu": 7182,
  "\u2581erlassen": 7183,
  "\u2581zentrale": 7184,
  "\u2581historic": 7185,
  "\u2581Care": 7186,
  "\u2581entschieden": 7187,
  "\u2581Einen": 7188,
  "vent": 7189,
  "\u2581berichtet": 7190,
  "\u2581Saison": 7191,
  "\u2581Eisen": 7192,
  "\u2581nearly": 7193,
  "\u2581schwarz": 7194,
  "\u2581schemes": 7195,
  "\u2581f\u00fchlen": 7196,
  "weise": 7197,
  "\u2581tea": 7198,
  "\u2581sin": 7199,
  "\u2581Baum": 7200,
  "\u2581Stoffe": 7201,
  "\u2581Pack": 7202,
  "\u2581Heiligen": 7203,
  "\u2581Einhaltung": 7204,
  "\u2581Ter": 7205,
  "dor": 7206,
  "\u2581awarded": 7207,
  "\u2581Resolution": 7208,
  "\u258163": 7209,
  "\u2581Menu": 7210,
  "\u2581ko": 7211,
  "\u2581Protocol": 7212,
  "lay": 7213,
  "\u2581Damen": 7214,
  "key": 7215,
  "\u2581camp": 7216,
  "\u2581Zeugen": 7217,
  "\u2581Versicherungs": 7218,
  "wort": 7219,
  "stoffe": 7220,
  "operation": 7221,
  "gna": 7222,
  "\u2581pure": 7223,
  "\u2581colours": 7224,
  "\u2581Rights": 7225,
  "/2003": 7226,
  "\u2581residence": 7227,
  "\u2581interface": 7228,
  "\u2581gesch\u00fctzt": 7229,
  "\u2581Both": 7230,
  "\u258126.": 7231,
  "\u2581Priester": 7232,
  "\u2581SP": 7233,
  "\u2581Matt": 7234,
  "og": 7235,
  "\u2581Initiativen": 7236,
  "\u2581sterben": 7237,
  "\u2581motion": 7238,
  "\u2581Sch\u00f6n": 7239,
  "\u2581Bahn": 7240,
  "\u2581Communication": 7241,
  "\u2581EEA": 7242,
  "\u2010": 7243,
  "\u2581conducted": 7244,
  "\u2581schwach": 7245,
  "\u2581Ma\u00dfe": 7246,
  "\u2581DES": 7247,
  "\u2581erz\u00e4hlt": 7248,
  "\u2581alter": 7249,
  "\u2581Laden": 7250,
  "\u2581entstanden": 7251,
  "\u2581Vom": 7252,
  "\u2581accompanied": 7253,
  "\u2581Sprach": 7254,
  "AD": 7255,
  "\u2581stars": 7256,
  "\u2581DLL": 7257,
  "\u2581Tonnen": 7258,
  "\u2581component": 7259,
  "kurs": 7260,
  "\u2581cap": 7261,
  "\u2581College": 7262,
  "\u2581Album": 7263,
  "\u2581Seminar": 7264,
  "\u2581Laufe": 7265,
  "\u2581Internationale": 7266,
  "\u2581mobility": 7267,
  "\u2581daraus": 7268,
  "\u2581ER": 7269,
  "\u2581weiterer": 7270,
  "\u2581tradition": 7271,
  "-15": 7272,
  "\u2581sehe": 7273,
  "\u2581Juden": 7274,
  "\u2581Mengen": 7275,
  "\u2581undertakings": 7276,
  "\u2581zus\u00e4tzlich": 7277,
  "\u2581er\u00f6ffnet": 7278,
  "\u2581Gewinn": 7279,
  "\u2581discover": 7280,
  "NS": 7281,
  "\u2581television": 7282,
  "\u2581seek": 7283,
  "\u2581tra": 7284,
  "ami": 7285,
  "\u2581Pf": 7286,
  "\u2581Unterschiede": 7287,
  "\u2581sitting": 7288,
  "\u2581Washington": 7289,
  "\u2581Effizienz": 7290,
  "\u2581Pol": 7291,
  "eil": 7292,
  "\u2581grant": 7293,
  "\u2581mouth": 7294,
  "\u2581Drogen": 7295,
  "\u2581dog": 7296,
  "\u2581schwierig": 7297,
  "\u2581Zentral": 7298,
  "\u2581previously": 7299,
  "\u2581Nachfrage": 7300,
  "\u2581Choose": 7301,
  "\u2581attack": 7302,
  "\u2581sell": 7303,
  "\u2581encourage": 7304,
  "akt": 7305,
  "\u2581Vorteil": 7306,
  "\u2581akzeptiert": 7307,
  "\u2581Zweifel": 7308,
  "\u2581Cup": 7309,
  "ns": 7310,
  "\u2581sit": 7311,
  "\u2581truly": 7312,
  "r\u00e9": 7313,
  "\u2581Enterprise": 7314,
  "\u2581changing": 7315,
  "amt": 7316,
  "\u00e1n": 7317,
  "\u2581Verst\u00e4ndnis": 7318,
  "\u2581erkl\u00e4rte": 7319,
  "\u00e4h": 7320,
  "\u2581profit": 7321,
  "Lo": 7322,
  "\u2581fell": 7323,
  "\u2581gelegt": 7324,
  "\u2581\u00fcberzeugt": 7325,
  "\u2581Executive": 7326,
  "\u2581Fluss": 7327,
  "\u2581Investitions": 7328,
  "\u2581erw\u00e4hnt": 7329,
  "TR": 7330,
  "\u2581Qu": 7331,
  "\u2581eng": 7332,
  "\u2581Schiff": 7333,
  "\u2581unbedingt": 7334,
  "\u2581Modern": 7335,
  "FS": 7336,
  "\u2581gesellschaft": 7337,
  "\u2581album": 7338,
  "ico": 7339,
  "\u2581Ausland": 7340,
  "ome": 7341,
  "\u2581Arbeitsplatz": 7342,
  "\u2581haven": 7343,
  "\u2581erinnert": 7344,
  "\u2581Catholic": 7345,
  "\u2581Christen": 7346,
  "\u2581handle": 7347,
  "\u2581launched": 7348,
  "fallen": 7349,
  "\u2581arm": 7350,
  "\u2581amendment": 7351,
  "\u2581difficulties": 7352,
  "\u2581erzeugt": 7353,
  "\u2581measurement": 7354,
  "\u2581H\u00e4nde": 7355,
  "\u2581Kal": 7356,
  "zone": 7357,
  "\u2581herum": 7358,
  "izer": 7359,
  "aries": 7360,
  "\u2581Comments": 7361,
  "rel": 7362,
  "\u2581violence": 7363,
  "WE": 7364,
  "\u2581regulatory": 7365,
  "\u2581confirmed": 7366,
  "\u2581Watch": 7367,
  "\u2581Write": 7368,
  "\u2581Fortschritt": 7369,
  "\u2581primarily": 7370,
  "-9": 7371,
  "\u2581Booking": 7372,
  "/3": 7373,
  "wan": 7374,
  "\u2581beschrieben": 7375,
  "\u2581unver": 7376,
  "\u00fcg": 7377,
  "\u2581Referenz": 7378,
  "\u2581betreffend": 7379,
  "\u2581Ziff": 7380,
  "\u2581leaving": 7381,
  "etz": 7382,
  "\u2581walking": 7383,
  "\u2581Solutions": 7384,
  "\u2581Eastern": 7385,
  "IO": 7386,
  "\u2581keiner": 7387,
  "\u2581Gebrauch": 7388,
  "\u2581erz\u00e4hlen": 7389,
  "\u2581Mari": 7390,
  "\u2581Detail": 7391,
  "TP": 7392,
  "pin": 7393,
  "\u2581slow": 7394,
  "tour": 7395,
  "\u2581Audi": 7396,
  "\u2581practitioners": 7397,
  "format": 7398,
  "rag": 7399,
  "\u2581Guest": 7400,
  "EP": 7401,
  "\u2581Darstellung": 7402,
  "\u2581appearance": 7403,
  "\u2581Tausende": 7404,
  "\u2581sky": 7405,
  "\u2581erinnern": 7406,
  "long": 7407,
  "\u2581besitzt": 7408,
  "\u2581h\u00f6chsten": 7409,
  "\u2581Northern": 7410,
  "\u2581signal": 7411,
  "halt": 7412,
  "\u2581Verhalten": 7413,
  "\u2581campsite": 7414,
  "fried": 7415,
  "\u2581Erwachsene": 7416,
  "\u2581Ereignisse": 7417,
  "\u2581zahlen": 7418,
  "\u2581bright": 7419,
  "\u2581landscape": 7420,
  "\u2581sample": 7421,
  "\u2581relatively": 7422,
  "fahren": 7423,
  "\u2581Kein": 7424,
  "\u2581wenden": 7425,
  "inter": 7426,
  "\u2581Charles": 7427,
  "\u2581examination": 7428,
  "\u2581CON": 7429,
  "w\u00e4": 7430,
  "\u2581powered": 7431,
  "\u2581club": 7432,
  "m\u00fc": 7433,
  "\u2581sweet": 7434,
  "\u2581einzelne": 7435,
  "\u2581Wal": 7436,
  "\u2581Authority": 7437,
  "\u2581nearby": 7438,
  "\u2581carefully": 7439,
  "\u2581Bla": 7440,
  "\u2581investments": 7441,
  "\u258127.": 7442,
  "\u2581obligation": 7443,
  "\u2581Rev": 7444,
  "\u2581endlich": 7445,
  "tig": 7446,
  "\u00e0": 7447,
  "stock": 7448,
  "\u2581mini": 7449,
  "\u2581Agentur": 7450,
  "\u2581AB": 7451,
  "\u2581Finnland": 7452,
  "\u2581lebt": 7453,
  "\u2581Sch\u00f6nheit": 7454,
  "\u2581patterns": 7455,
  "\u2581Based": 7456,
  "\u2581diet": 7457,
  "\u2581presents": 7458,
  "ele": 7459,
  "phy": 7460,
  "\u2581Optionen": 7461,
  "FF": 7462,
  "isse": 7463,
  "\u2581Sur": 7464,
  "rant": 7465,
  "\u2581Pla": 7466,
  "\u2581reduziert": 7467,
  "\u2581Content": 7468,
  "durch": 7469,
  "place": 7470,
  "\u2581Volks": 7471,
  "\u2581Bem\u00fchungen": 7472,
  "\u2581CA": 7473,
  "\u2581Friedrich": 7474,
  "\u2581hall": 7475,
  "\u2581fill": 7476,
  "\u2581pension": 7477,
  "dienste": 7478,
  "rio": 7479,
  "\u2581Wellness": 7480,
  "\u25811.4": 7481,
  "\u2581Flash": 7482,
  "\u2581ta": 7483,
  "\u2581festgelegten": 7484,
  "\u2581whatever": 7485,
  "\u2581Symbol": 7486,
  "\u2581thousand": 7487,
  "get": 7488,
  "\").": 7489,
  "\u2581concentration": 7490,
  "trans": 7491,
  "\u258178": 7492,
  "\u2581Eingang": 7493,
  "schaftliche": 7494,
  "\u2581lo": 7495,
  "gor": 7496,
  "\u2581explain": 7497,
  "\u2581nationaler": 7498,
  "\u2581fourth": 7499,
  "\u2581160": 7500,
  "\u2581Gem\u00fcse": 7501,
  "\u2581Modelle": 7502,
  "mos": 7503,
  "\u2581Bed\u00fcrfnisse": 7504,
  "And": 7505,
  "\u2581deposit": 7506,
  "\u2581Aufgrund": 7507,
  "\u2581considerable": 7508,
  "\u2581Fire": 7509,
  "\u2581l\u00f6schen": 7510,
  "s\u00e4tze": 7511,
  "\u2581attractive": 7512,
  "\u2581Hor": 7513,
  "\u2581Char": 7514,
  "sehen": 7515,
  "PO": 7516,
  "\u2581Ehe": 7517,
  "\u2581Normen": 7518,
  "\u2581Verbindungen": 7519,
  "\u2581Schl": 7520,
  "\u2581Schulen": 7521,
  "\u2581bath": 7522,
  "\u2581examples": 7523,
  "\u2581bewegen": 7524,
  "bert": 7525,
  "lei": 7526,
  "\u2581Studium": 7527,
  "\u2581niemals": 7528,
  "Alle": 7529,
  "but": 7530,
  "\u2581Simon": 7531,
  "\u2581closer": 7532,
  "\u2581dinner": 7533,
  "\u2581enables": 7534,
  "\u2581looked": 7535,
  "\u2581Gra": 7536,
  "\u2022": 7537,
  "\u2581Binnenmarkt": 7538,
  "\u2581darstellen": 7539,
  "\u2581Ausf\u00fchrung": 7540,
  "\u2581Weltbank": 7541,
  "ktion": 7542,
  "\u2581bike": 7543,
  "\u2581Alternative": 7544,
  "\u2581Rein": 7545,
  "\u2581finance": 7546,
  "alit\u00e4t": 7547,
  "\u2581Jede": 7548,
  "\u2581Krise": 7549,
  "\u2581Schnee": 7550,
  "\u2581Kommissar": 7551,
  "\u2581controls": 7552,
  "ometer": 7553,
  "wei": 7554,
  "meister": 7555,
  "ory": 7556,
  "\u2581Galerie": 7557,
  "\u2581Engagement": 7558,
  "\u2581Abkommens": 7559,
  "\u25811975": 7560,
  "stor": 7561,
  "ces": 7562,
  "\u2581Rie": 7563,
  "\u2581Infos": 7564,
  "figur": 7565,
  "card": 7566,
  "\u2581Tools": 7567,
  "\u258110-": 7568,
  "\u2581Worten": 7569,
  "\u2581Corporate": 7570,
  "GE": 7571,
  "\u2581exposure": 7572,
  "\u2581\u00fcbermittelt": 7573,
  "\u2581Item": 7574,
  "\u2581fee": 7575,
  "\u2581biggest": 7576,
  "\u25811960": 7577,
  "\u2581ruhig": 7578,
  "\u2581cancer": 7579,
  "\u2581Linux": 7580,
  "nik": 7581,
  "\u2581collected": 7582,
  "\u2581Croatia": 7583,
  "blick": 7584,
  "\u2581perfekte": 7585,
  "una": 7586,
  "\u2581Norden": 7587,
  "\u2581Gegenstand": 7588,
  "from": 7589,
  "m\u00f6glichkeiten": 7590,
  "\u2581offene": 7591,
  "\u2581Einwohner": 7592,
  "\u2581fu": 7593,
  "\u2581agenda": 7594,
  "\u2581Request": 7595,
  "\u2581invited": 7596,
  "\u2581Applikation": 7597,
  "\u258120%": 7598,
  "gger": 7599,
  "600": 7600,
  "\u2581Jewish": 7601,
  "\u2581BIP": 7602,
  "\u2581Apps": 7603,
  "\u2581Ki": 7604,
  "gin": 7605,
  "\u2581Would": 7606,
  "\u2581bewusst": 7607,
  "\u2581treten": 7608,
  "\u258167": 7609,
  "\u2581Korea": 7610,
  "\u2581standing": 7611,
  "\u2581Quellen": 7612,
  "aire": 7613,
  "\u2581Bezeichnung": 7614,
  "\u2581sides": 7615,
  "\u2581couldn": 7616,
  "\u2581desire": 7617,
  "\u2581Maschine": 7618,
  "\u2581Mexico": 7619,
  "\u25818,": 7620,
  "ese": 7621,
  "angebot": 7622,
  "\u2581\u00a7": 7623,
  "gestellt": 7624,
  "\u2581reservation": 7625,
  "gh": 7626,
  "\u2581Eco": 7627,
  "\u2581Translate": 7628,
  "lement": 7629,
  "\u2581informiert": 7630,
  "\u2581Exchange": 7631,
  "Mar": 7632,
  "\u25813:": 7633,
  "\u2581Aktionen": 7634,
  "reise": 7635,
  "\u2581democracy": 7636,
  "\u2581entdecken": 7637,
  "\u2581Ursprung": 7638,
  "\u2581Ol": 7639,
  "\u2581studied": 7640,
  "\u2581vorgenommen": 7641,
  "\u2581Zugriff": 7642,
  "onic": 7643,
  "\u00fccht": 7644,
  "\u2581gefallen": 7645,
  "\u2581Kreis": 7646,
  "\u2581Secretary": 7647,
  "\u2581fashion": 7648,
  "\u2581label": 7649,
  "OM": 7650,
  "cast": 7651,
  "\u2581m\u00f6glichst": 7652,
  "\u2581continuing": 7653,
  "\u2581~": 7654,
  "\u2581berechnet": 7655,
  "\u2581Sc": 7656,
  "bot": 7657,
  "UT": 7658,
  "\u2581campaign": 7659,
  "\u2581lake": 7660,
  "\u2581Silber": 7661,
  "cke": 7662,
  "\u2581Tee": 7663,
  "\u2581Meister": 7664,
  "\u2581Forscher": 7665,
  "ties": 7666,
  "\u2581Basel": 7667,
  "\u2581europ\u00e4ischer": 7668,
  "\u2581Datenbank": 7669,
  "\u2581ro": 7670,
  "\u2581student": 7671,
  "geht": 7672,
  "\u2581MS": 7673,
  "\u2581interessiert": 7674,
  "\u2581Ferienhaus": 7675,
  "\u2581erzielt": 7676,
  "\u2581Ferien": 7677,
  "media": 7678,
  "\u2581Fre": 7679,
  "\u2581mine": 7680,
  "Or": 7681,
  "\u2581pen": 7682,
  "\u2581bisschen": 7683,
  "\u2581demands": 7684,
  "tics": 7685,
  "\u2581ferner": 7686,
  "\u2581gelegen": 7687,
  "\u2581starke": 7688,
  "\u2581Aussprache": 7689,
  "sia": 7690,
  "\u2581Bestandteil": 7691,
  "\u2581Follow": 7692,
  "\u2581justice": 7693,
  "\u2581erteilt": 7694,
  "\u2581Classic": 7695,
  "\u2581\u00c4": 7696,
  "\u2581whereas": 7697,
  "\u2581goals": 7698,
  "stell": 7699,
  "\u2581explained": 7700,
  "\u2581contents": 7701,
  "\u2581Betten": 7702,
  "\u2581Ohne": 7703,
  "\u2581Properties": 7704,
  "aria": 7705,
  "bt": 7706,
  "\u2581Aktien": 7707,
  "\u2581Gerichtshof": 7708,
  "\u2581expert": 7709,
  "\u2581Metal": 7710,
  "\u2581municipality": 7711,
  "\u2581gr\u00f6\u00dferen": 7712,
  "\u2581th": 7713,
  "\u2581digitalen": 7714,
  "\u2581reporting": 7715,
  "\u2581client": 7716,
  "\u2581Verteilung": 7717,
  "\u2581frequently": 7718,
  "\u00e2": 7719,
  "\u2581gew\u00e4hlt": 7720,
  "\u2581impossible": 7721,
  "\u2581brings": 7722,
  "\u2581Satz": 7723,
  "\u2581Kur": 7724,
  "\u2581delete": 7725,
  "\u2581angewendet": 7726,
  "\u2581iPhone": 7727,
  "\u2581liefert": 7728,
  "\u2581illegal": 7729,
  "\u2581constant": 7730,
  "\"?": 7731,
  "meter": 7732,
  "\u2581Schwester": 7733,
  "\u2581east": 7734,
  "\u2581Regen": 7735,
  "\u258168": 7736,
  "\u2581hospital": 7737,
  "mont": 7738,
  "h\u00f6he": 7739,
  "\u2581Dad": 7740,
  "\u2581parameters": 7741,
  "\u2581Medizin": 7742,
  "\u2581Dich": 7743,
  "SO": 7744,
  "\u2581Versandkosten": 7745,
  "\u2581Modul": 7746,
  "ausstattung": 7747,
  "\u2581heading": 7748,
  "\u2581bottom": 7749,
  "\u2581Mail": 7750,
  "\u2581Reaktion": 7751,
  "\u2581kostenlose": 7752,
  "uz": 7753,
  "\u2581Kommunikations": 7754,
  "\u2581Verbreitung": 7755,
  "\u2581shops": 7756,
  "\u2581taxes": 7757,
  "\u2581Verfolgung": 7758,
  "nom": 7759,
  "\u2581180": 7760,
  "sbe": 7761,
  "\u2581com": 7762,
  "\u2581Carl": 7763,
  "\u2581Berechnung": 7764,
  "\u2581EWR": 7765,
  "\u2581Fahrrad": 7766,
  "\u2581Prozesse": 7767,
  "\u2581ausdr\u00fccklich": 7768,
  "\u2581ride": 7769,
  "srecht": 7770,
  "\u2581Andreas": 7771,
  "\u258171": 7772,
  "\u00e4nd": 7773,
  "\u2581Porto": 7774,
  "gehalt": 7775,
  "\u2581Bereitstellung": 7776,
  "\u2581formed": 7777,
  "\u2581verbindlich": 7778,
  "PI": 7779,
  "\u2581printing": 7780,
  "\u2581700": 7781,
  "versorgung": 7782,
  "\u2581guarantees": 7783,
  "\u2581Insgesamt": 7784,
  "\\": 7785,
  "\u2581mention": 7786,
  "gesetz": 7787,
  "tten": 7788,
  "\u2581Sh": 7789,
  "\u25816,": 7790,
  "\u2581mis": 7791,
  "\u2581Genau": 7792,
  "\u2581Gef\u00e4ngnis": 7793,
  "\u2581gestalten": 7794,
  "\u2581sen": 7795,
  "\u2581[2]": 7796,
  "\u2581deals": 7797,
  "\u2581calculated": 7798,
  "\u2581Albert": 7799,
  "\u2581trading": 7800,
  "\u2581surrounded": 7801,
  "\u2581beziehen": 7802,
  "\u2581gr\u00f6\u00dfer": 7803,
  "\u2581manufacture": 7804,
  "\u2581Ach": 7805,
  "\u2581Gestaltung": 7806,
  "800": 7807,
  "kg": 7808,
  "\u2581Poker": 7809,
  "\u2581facility": 7810,
  "\u2581erheblich": 7811,
  "\u2581Mol": 7812,
  "\u2581statistical": 7813,
  "\u2581CE": 7814,
  "\u2581sc": 7815,
  "\u2581clock": 7816,
  "\u2581rose": 7817,
  "minister": 7818,
  "\u2581PS": 7819,
  "\u2581Versuch": 7820,
  "\u2581Anstieg": 7821,
  "\u2581Collection": 7822,
  "\u2581filled": 7823,
  "\u2581Wettbewerbs": 7824,
  "\u2581corporate": 7825,
  "\u2581situations": 7826,
  "\u2581Currently": 7827,
  "\u2581beinhaltet": 7828,
  "\u2581Medical": 7829,
  "\u2581erleben": 7830,
  "avi": 7831,
  "\u2581drug": 7832,
  "\u2581greatest": 7833,
  "\u2581periods": 7834,
  "\u2581declaration": 7835,
  "\u2581agencies": 7836,
  "-11": 7837,
  "\u2581versch": 7838,
  "\u2581erfordert": 7839,
  "\u2581Voraus": 7840,
  "\u2581block": 7841,
  "\u2581Egypt": 7842,
  "\u2581Element": 7843,
  "App": 7844,
  "\u2581supposed": 7845,
  "\u2581Employment": 7846,
  "\u2581Verlust": 7847,
  "Car": 7848,
  "\u2581Sky": 7849,
  "\u2581Sale": 7850,
  "\u2581Traum": 7851,
  "tr\u00e4ger": 7852,
  "\u2581addressed": 7853,
  "bewertung": 7854,
  "\u2581grounds": 7855,
  "\u2581tu": 7856,
  "\u2581topic": 7857,
  "cial": 7858,
  "\u2581Asien": 7859,
  "via": 7860,
  "\u2581ju": 7861,
  "uni": 7862,
  "\u00fcn": 7863,
  "\u2581rot": 7864,
  "\u2581ausgef\u00fchrt": 7865,
  "\u2581GB": 7866,
  "\u2581basiert": 7867,
  "\u2581empty": 7868,
  "\u2581Untersuchungen": 7869,
  "\u2581spa": 7870,
  "\u2581Three": 7871,
  "\u258173": 7872,
  "\u2581regularly": 7873,
  "\u2581h\u00f6chste": 7874,
  "\u2581filter": 7875,
  "linie": 7876,
  "zz": 7877,
  "\u2581Sachen": 7878,
  "BS": 7879,
  "\u2581carbon": 7880,
  "\u2581temporary": 7881,
  "\u2581Lohn": 7882,
  "\u2581Kirchen": 7883,
  "\u2581counter": 7884,
  "mie": 7885,
  "\u2581Rose": 7886,
  "\u2581Italiano": 7887,
  "\u2581effectively": 7888,
  "\u2581expertise": 7889,
  "Gruppe": 7890,
  "dro": 7891,
  "unk": 7892,
  "\u2581remaining": 7893,
  "\u2581Gem\u00e4\u00df": 7894,
  "\u2581nennen": 7895,
  "\u2581Hel": 7896,
  "\u258110/10": 7897,
  "\u2581beschr\u00e4nkt": 7898,
  "\u2581wirkt": 7899,
  "\u2581Designer": 7900,
  "\u2581handling": 7901,
  "kin": 7902,
  "\u2581F\u00e4lle": 7903,
  "\u2581postal": 7904,
  "bul": 7905,
  "FA": 7906,
  "\u2581Abteilung": 7907,
  "\u2581Leipzig": 7908,
  "\u2581spezifischen": 7909,
  "\u2581balcony": 7910,
  "\u2581versions": 7911,
  "\u2581vital": 7912,
  "\u2581democratic": 7913,
  "\u2581diseases": 7914,
  "\u2581trouble": 7915,
  "mehr": 7916,
  "\u2581express": 7917,
  "\u2581laufen": 7918,
  "\u2581Tim": 7919,
  "Un": 7920,
  "\u2581S\u00fcden": 7921,
  "\u2581Franz": 7922,
  "\u2581remained": 7923,
  "\u2581Archiv": 7924,
  "\u2581newsletter": 7925,
  "\u2581Stefan": 7926,
  "mas": 7927,
  "\u25811.5": 7928,
  "\u2581Kn": 7929,
  "LT": 7930,
  "ace": 7931,
  "\u2581speichern": 7932,
  "\u2581blind": 7933,
  "\u2581visible": 7934,
  "\u2581HERR": 7935,
  "ehr": 7936,
  "eau": 7937,
  "\u2581Beste": 7938,
  "\u2581happens": 7939,
  "sichtig": 7940,
  "nar": 7941,
  "\u2581Massen": 7942,
  "\u2581eindeutig": 7943,
  "\u2581Oberfl\u00e4che": 7944,
  "llen": 7945,
  "\u2581requirement": 7946,
  "\u2581immediate": 7947,
  "\u2581Schlacht": 7948,
  "\u2581drop": 7949,
  "\u2581applicant": 7950,
  "\u2581consent": 7951,
  "\u2581Werbe": 7952,
  "\u2581producer": 7953,
  "wende": 7954,
  "organisationen": 7955,
  "vic": 7956,
  "\u2581operator": 7957,
  "\u2581promoting": 7958,
  "tiv": 7959,
  "tive": 7960,
  "\u2581Wieso": 7961,
  "pos": 7962,
  "\u2581Gallery": 7963,
  "related": 7964,
  "\u2581Ver\u00e4nderung": 7965,
  "bedarf": 7966,
  "\u2581bag": 7967,
  "\u2581Grill": 7968,
  "\u2581Rio": 7969,
  "\u2581ran": 7970,
  "\u2581onto": 7971,
  "\u2581Tarif": 7972,
  "\u2581researchers": 7973,
  "\u2581topics": 7974,
  "\u2581Small": 7975,
  "\u2581GPS": 7976,
  "\u2581tourist": 7977,
  "\u2581darstellt": 7978,
  "h\u00f6r": 7979,
  "\u2581Pr\u00e4": 7980,
  "\u2581solve": 7981,
  "strom": 7982,
  "\u25814.0": 7983,
  "\u2581waters": 7984,
  "\u2581ISBN": 7985,
  "\u2581Erf\u00fcllung": 7986,
  "\u2581module": 7987,
  "\u2581injection": 7988,
  "\u2581Dor": 7989,
  "\u2581kinds": 7990,
  "\u2581Yacht": 7991,
  "\u2581dritte": 7992,
  "\u2581Following": 7993,
  "\u2581Sales": 7994,
  "\u2581forced": 7995,
  "\u2581Stadtzentrum": 7996,
  "\u2581expression": 7997,
  "\u2581Lauf": 7998,
  "\u2581globalen": 7999,
  "\u2581inklusive": 8000,
  "ser": 8001,
  "\u2581flexibility": 8002,
  "\u2581pleased": 8003,
  "\u2581Kroatien": 8004,
  "\u2581IM": 8005,
  "\u2581Drive": 8006,
  "\u2581scene": 8007,
  "erung": 8008,
  "\u2581panel": 8009,
  "making": 8010,
  "Net": 8011,
  "\u2581SO": 8012,
  "\u2581priorities": 8013,
  "\u2581Ali": 8014,
  "\u2581geschehen": 8015,
  "\u2581vessels": 8016,
  "mis": 8017,
  "\u2581Mountain": 8018,
  "Ra": 8019,
  "\u2581abh\u00e4ngig": 8020,
  "kultur": 8021,
  "\u2581facilitate": 8022,
  "\u2581cl": 8023,
  "ME": 8024,
  "\u2581shot": 8025,
  "\u2581Mas": 8026,
  "\u2581Eigen": 8027,
  "\u2581Division": 8028,
  "Her": 8029,
  "\u2581sort": 8030,
  "falls": 8031,
  "\u2581Sag": 8032,
  "HA": 8033,
  "\u2581Lass": 8034,
  "\u2581dringend": 8035,
  "\u2581tion": 8036,
  "\u2581Payment": 8037,
  "ARD": 8038,
  "\u2581hundred": 8039,
  "LI": 8040,
  "\u2581yes": 8041,
  "\u2581Besides": 8042,
  "\u2581laying": 8043,
  "legung": 8044,
  "ml": 8045,
  "t\u00e4tigkeit": 8046,
  "m\u00e4\u00dfig": 8047,
  "\u2581zufrieden": 8048,
  "\u2581angewandt": 8049,
  "\u2581farmers": 8050,
  "\u2581Fahrzeuge": 8051,
  "\u2581confidence": 8052,
  "\u2581m\u00f6glichen": 8053,
  "\u2581Cy": 8054,
  "\u2581Junge": 8055,
  "\u2581gehe": 8056,
  "urs": 8057,
  "\u2581dimensions": 8058,
  "\u2581poverty": 8059,
  "rock": 8060,
  "\u2581specifications": 8061,
  "\u2581desk": 8062,
  "rac": 8063,
  "\u2581planen": 8064,
  "ologische": 8065,
  "\u258179": 8066,
  "\u2581calling": 8067,
  "Ja": 8068,
  "\u2581Lisbon": 8069,
  "cing": 8070,
  "Vertrag": 8071,
  "\u2581Obst": 8072,
  "\u2581thou": 8073,
  "\u2581weiteres": 8074,
  "\u2581Hungary": 8075,
  "\u2581employed": 8076,
  "por": 8077,
  "\u2581weekend": 8078,
  "\u2581angesichts": 8079,
  "\u2581Qualit\u00e4ts": 8080,
  "\u2581l\u00e4\u00dft": 8081,
  "\u2581rail": 8082,
  "play": 8083,
  "\u2581Castle": 8084,
  "\u2581Wolf": 8085,
  "\u2581edition": 8086,
  "\u2581suffering": 8087,
  "\u2581covering": 8088,
  "\u2581perfectly": 8089,
  "\u2581Fonds": 8090,
  "\u25811978": 8091,
  "\u2581Grenze": 8092,
  "\u2581monetary": 8093,
  "\u2581\u00a3": 8094,
  "\u2581Marina": 8095,
  "\u2581Phone": 8096,
  "\u2581supplies": 8097,
  "\u2581abroad": 8098,
  "\u2581adults": 8099,
  "\u2581Tell": 8100,
  "\u2581pleasure": 8101,
  "\u2581Transparenz": 8102,
  "\u00e4ch": 8103,
  "read": 8104,
  "\u2581Direktor": 8105,
  "\u2581140": 8106,
  "\u2581YouTube": 8107,
  "\u2581Young": 8108,
  "\u2581surrounding": 8109,
  "\u2581Rent": 8110,
  "\u25812.0": 8111,
  "\u2581H\u00e4": 8112,
  "\u2581gentlemen": 8113,
  "st\u00fcck": 8114,
  "Preis": 8115,
  "\u2581Letzte": 8116,
  "\u2581conclusions": 8117,
  "\u2581Kundenservice": 8118,
  "\u2581centres": 8119,
  "tas": 8120,
  "teile": 8121,
  "\u2581monitor": 8122,
  "\u2581Bosch": 8123,
  "\u2581Ferienwohnung": 8124,
  "\u2581patent": 8125,
  "\u2581Milit\u00e4r": 8126,
  "sicht": 8127,
  "\u2581kurzen": 8128,
  "\u2581Pharma": 8129,
  "\u2581battle": 8130,
  "\u2581Paket": 8131,
  "\u2581noise": 8132,
  "\u2581Mass": 8133,
  "\u2581Mur": 8134,
  "\u2581walls": 8135,
  "\u2581Verfahrens": 8136,
  "\u2581guess": 8137,
  "\u2581Off": 8138,
  "l\u00e4nder": 8139,
  "\u2581afraid": 8140,
  "\u2581Schuld": 8141,
  "pper": 8142,
  "\u2581Debatte": 8143,
  "\u2581match": 8144,
  "\u2581audience": 8145,
  "\u2581lay": 8146,
  "\u2581z\u00e4hlt": 8147,
  "gro": 8148,
  "\u2581leaders": 8149,
  "\u2581ISPO": 8150,
  "ativ": 8151,
  "\u2581Hell": 8152,
  "losen": 8153,
  "staat": 8154,
  "\u2581aircraft": 8155,
  "\u2581Queen": 8156,
  "\u2581mon": 8157,
  "qu": 8158,
  "\u2581Night": 8159,
  "cc": 8160,
  "\u2581Konzert": 8161,
  "\u2581\u201a": 8162,
  "acht": 8163,
  "ional": 8164,
  "\u2581Johann": 8165,
  "\u2581Nachhaltigkeit": 8166,
  "ifi": 8167,
  "\u2581Sar": 8168,
  "\u2581Tur": 8169,
  "\u2581finding": 8170,
  "level": 8171,
  "\u2581Hard": 8172,
  "\u2581diverse": 8173,
  "\u2581receiving": 8174,
  "\u2581kurze": 8175,
  "\u2581Index": 8176,
  "\u2581Lind": 8177,
  "\u2581sicheren": 8178,
  "\u2581neuesten": 8179,
  "\u2581notwendigen": 8180,
  "\u2581compare": 8181,
  "\u2581ring": 8182,
  "\u2581Armut": 8183,
  "\u2581vary": 8184,
  "\u2581arms": 8185,
  "\u2581nations": 8186,
  "\u2581gross": 8187,
  "ls": 8188,
  "\u2581organized": 8189,
  "ister": 8190,
  "\u2581F\u00e4higkeiten": 8191,
  "\u2581Arab": 8192,
  "\u2581Jews": 8193,
  "\u2581Konzentration": 8194,
  "ht": 8195,
  "\u2581therapy": 8196,
  "Mi": 8197,
  "\u2581operate": 8198,
  "\u2581edge": 8199,
  "\u2581Autos": 8200,
  "\u2581loans": 8201,
  "bedingungen": 8202,
  "\u2581Gross": 8203,
  "\u2581\u00e4hnlich": 8204,
  "\u2581Gang": 8205,
  "fra": 8206,
  "\u2581brachte": 8207,
  "cin": 8208,
  "\u2581laut": 8209,
  "\u2581texts": 8210,
  "cat": 8211,
  "\u2581Fischer": 8212,
  "\u2581raise": 8213,
  "\u2581kombiniert": 8214,
  "\u2581Schlie\u00dflich": 8215,
  "\u2581vollst\u00e4ndige": 8216,
  "\u2581Registrierung": 8217,
  "\u2581Salz": 8218,
  "misch": 8219,
  "\u2581j": 8220,
  "\u2581leg": 8221,
  "\u2581z\u00e4hlen": 8222,
  "\u2581Alex": 8223,
  "\u2581Bell": 8224,
  "4)": 8225,
  "\u2581Einfuhren": 8226,
  "\u2581allgemein": 8227,
  "\u2581Ideal": 8228,
  "\u2581sonstigen": 8229,
  "\u2581expansion": 8230,
  "\u2581Erh\u00f6hung": 8231,
  "\u2581rain": 8232,
  "\u2581drawing": 8233,
  "lis": 8234,
  "\u2581Dort": 8235,
  "\u2581bezieht": 8236,
  "\u2581Bord": 8237,
  "\u2581visual": 8238,
  "\u2581sp\u00e4t": 8239,
  "\u2581bitten": 8240,
  "kle": 8241,
  "\u2581frequency": 8242,
  "\u2581log": 8243,
  "\u2581Ankunft": 8244,
  "\u2581collect": 8245,
  "\u2581Sorge": 8246,
  "\u2581verbreitet": 8247,
  "\u2581w\u00fcnschen": 8248,
  "\u2581Fin": 8249,
  "\u2581Thailand": 8250,
  "BER": 8251,
  "\u2581Bill": 8252,
  "f\u00e4lle": 8253,
  "\u2581Bin": 8254,
  "\u2581Lin": 8255,
  "\u2581dynamic": 8256,
  "\u2581Plattform": 8257,
  "\u2581dining": 8258,
  "\u2581gesprochen": 8259,
  "\u00f6n": 8260,
  "isierte": 8261,
  "\u2581SCH": 8262,
  "\u25811973": 8263,
  "design": 8264,
  "\u25811977": 8265,
  "\u2581AC": 8266,
  "EST": 8267,
  "\u2581Hauptstadt": 8268,
  "sch\u00e4": 8269,
  "\u2581lie": 8270,
  "\u2581offensichtlich": 8271,
  "\u2581speaking": 8272,
  "\u2581Achtung": 8273,
  "\u2581verf\u00fcgbaren": 8274,
  "\u2581legislative": 8275,
  "gleich": 8276,
  "\u2581reducing": 8277,
  "Artikel": 8278,
  "\u2581Espa\u00f1ol": 8279,
  "oxid": 8280,
  "fish": 8281,
  "\u2581menschliche": 8282,
  "\u2581worry": 8283,
  "\u2581transparency": 8284,
  "\u2581Mom": 8285,
  "\u2581RO": 8286,
  "\u2581hurt": 8287,
  "\u2581Moses": 8288,
  "dra": 8289,
  "\u2581mostly": 8290,
  "\u2581Auge": 8291,
  "ander": 8292,
  "\u2581oral": 8293,
  "\u2581dealing": 8294,
  "\u2581gerichtet": 8295,
  "\u2581properly": 8296,
  "\u2581Hill": 8297,
  "\u2581begonnen": 8298,
  "chan": 8299,
  "\u2581Friedens": 8300,
  "like": 8301,
  "tions": 8302,
  "\u2581starken": 8303,
  "\u2581processed": 8304,
  "\u2581Bon": 8305,
  "\u2581ergibt": 8306,
  "jahr": 8307,
  "\u2581BlueOptics": 8308,
  "\u2581Bag": 8309,
  "\u2581starts": 8310,
  "\u2581aufgef\u00fchrt": 8311,
  "\u2581absolutely": 8312,
  "liches": 8313,
  "\u2581Freunden": 8314,
  "\u2581Termin": 8315,
  "gef\u00fchrt": 8316,
  "\u2581Sehen": 8317,
  "\u2581Spanisch": 8318,
  "chte": 8319,
  "\u2581Satan": 8320,
  "\u2581staatliche": 8321,
  "\u2581helped": 8322,
  "tha": 8323,
  "\u2581(+": 8324,
  "\u2581Credit": 8325,
  "aw": 8326,
  "\u2581Indian": 8327,
  "t\u00fcr": 8328,
  "\u2581hearing": 8329,
  "RM": 8330,
  "\u2581Signal": 8331,
  "\u2581hochwertige": 8332,
  ".6.": 8333,
  "\u2581Mad": 8334,
  "\u2581William": 8335,
  "\u2581Wechsel": 8336,
  "\u2581selben": 8337,
  "\u2581cast": 8338,
  "\u2581handeln": 8339,
  "\u2581Point": 8340,
  "\u2581sister": 8341,
  "\u2581ansehen": 8342,
  "\u2581Konflikt": 8343,
  "\u2581joined": 8344,
  "sar": 8345,
  "Und": 8346,
  "\u2581finish": 8347,
  "\u2581finanziert": 8348,
  "\u2581theme": 8349,
  "\u2581inclusive": 8350,
  "\u2581Anne": 8351,
  "\u2581guidance": 8352,
  "\u2581Dublin": 8353,
  "lob": 8354,
  "\u2581Spezial": 8355,
  "\u2581regionale": 8356,
  "\u00e4re": 8357,
  "\u2581Konzern": 8358,
  "\u2581Springe": 8359,
  "\u2581deutsch": 8360,
  "\u2581continuous": 8361,
  "\u2581Zustimmung": 8362,
  "\u2581Va": 8363,
  "\u2581Sekunden": 8364,
  "\u2581Verk\u00e4ufer": 8365,
  "now": 8366,
  "\u2581techniques": 8367,
  "\u2581Kan": 8368,
  "\u2581genauso": 8369,
  "\u2581explains": 8370,
  "\u2581causes": 8371,
  "ruf": 8372,
  "\u2581(10": 8373,
  "mobil": 8374,
  "\u2581pleasant": 8375,
  "\u2581stimmen": 8376,
  "SR": 8377,
  "\u2581strategies": 8378,
  "\u2581fees": 8379,
  "\u2581lieber": 8380,
  "rik": 8381,
  "\u2581Jedes": 8382,
  "kov": 8383,
  "\u2581Stay": 8384,
  "life": 8385,
  "Ru": 8386,
  "\u2581Nichts": 8387,
  "ppel": 8388,
  "real": 8389,
  "programme": 8390,
  "\u2581verschiedener": 8391,
  "\u2581competitiveness": 8392,
  "\u2581Pr\u00e4sidentin": 8393,
  "\u2581treat": 8394,
  "\u2581respectively": 8395,
  "\u2581Oil": 8396,
  "lassen": 8397,
  "\u2581Artikeln": 8398,
  "\u2581railway": 8399,
  "\u2581occasion": 8400,
  "\u2581Westen": 8401,
  "\u2581welchen": 8402,
  "sum": 8403,
  "\u2581updated": 8404,
  "\u2581scientists": 8405,
  "\u2581contemporary": 8406,
  "\u2581Wartung": 8407,
  "\u2581catch": 8408,
  "CT": 8409,
  "\u2581Toilet": 8410,
  "asse": 8411,
  "\u2581Schiffe": 8412,
  "\u2581discussions": 8413,
  "\u2581beobachtet": 8414,
  "\u2581interessante": 8415,
  "\u2581schnelle": 8416,
  "head": 8417,
  "\u2581formula": 8418,
  "\u2581starb": 8419,
  "dies": 8420,
  "CR": 8421,
  "\u25811976": 8422,
  "kunst": 8423,
  "oll": 8424,
  "\u2581Pal": 8425,
  "rau": 8426,
  "\u2581Moon": 8427,
  "kehr": 8428,
  "\u2581adequate": 8429,
  "\u2581Geburt": 8430,
  "col": 8431,
  "\u2581DA": 8432,
  "\u2581drucken": 8433,
  "\u2581betont": 8434,
  "\u2581F\u00fchrung": 8435,
  "\u2581Michel": 8436,
  "\u2581sport": 8437,
  "\u2581Luxus": 8438,
  "\u2581Know": 8439,
  "NO": 8440,
  "Ka": 8441,
  "\u2581interior": 8442,
  "\u2581clinical": 8443,
  "\u2581schlecht": 8444,
  "\u2581colors": 8445,
  "\u2581ES": 8446,
  "\u2581(5)": 8447,
  "\u2581Gute": 8448,
  "Hotel": 8449,
  "\u2581functional": 8450,
  "\u2581Herkunft": 8451,
  "\u2581Rank": 8452,
  "\u2581Which": 8453,
  "s\u00e4ure": 8454,
  "\u2581southern": 8455,
  "\u2581s\u00e4mtliche": 8456,
  "\u2581pe": 8457,
  "waren": 8458,
  "\u2581charges": 8459,
  "\u2581Natural": 8460,
  "\u2581Operation": 8461,
  "\u2581Texte": 8462,
  "\u2581creative": 8463,
  "arch": 8464,
  "\u2581Geh": 8465,
  "\u2581involving": 8466,
  "\u2581Steuerung": 8467,
  "\u2581namely": 8468,
  "lagen": 8469,
  "\u2581rapid": 8470,
  "\u2581finde": 8471,
  "\u2581Stimmen": 8472,
  "hersteller": 8473,
  "\u2581gesch": 8474,
  "\u2581quantity": 8475,
  "\u2581regime": 8476,
  "\u2581gelangen": 8477,
  "\u2581wert": 8478,
  "\u2581Lissabon": 8479,
  "\u2581Sicher": 8480,
  "\u2581bridge": 8481,
  "\u2581substantial": 8482,
  "\u2581Golden": 8483,
  "\u2581Objekte": 8484,
  "\u2581Breite": 8485,
  "\u2581considers": 8486,
  "\u2581ladies": 8487,
  "\u2581Ungarn": 8488,
  "zellen": 8489,
  "\u2581stations": 8490,
  "\u2581intervention": 8491,
  "\u2581125": 8492,
  "\u2581(5": 8493,
  "\u2581Password": 8494,
  "\u2581erstmals": 8495,
  "HR": 8496,
  "\u2581emergency": 8497,
  "\u2581Ly": 8498,
  "nicht": 8499,
  "\u2581Beweis": 8500,
  "\u2581AD": 8501,
  "\u2581Herbst": 8502,
  "\u2581Internationalen": 8503,
  "\u2581identity": 8504,
  "\u258182": 8505,
  "\u2581sonstige": 8506,
  "zahlen": 8507,
  "\u2581Kostenlose": 8508,
  "\u2581Run": 8509,
  "zin": 8510,
  "\u2581holidays": 8511,
  "\u2581collective": 8512,
  "06:00": 8513,
  "\u2581vacation": 8514,
  "gemeinschaft": 8515,
  "\u2581transition": 8516,
  "\u2581homepage": 8517,
  "einander": 8518,
  "\u2581Empfehlung": 8519,
  "ssel": 8520,
  "\u2581fr\u00fch": 8521,
  "\u2581einfachen": 8522,
  "EE": 8523,
  "pho": 8524,
  "\u2581Fr\u00fch": 8525,
  "\u2581Spiegel": 8526,
  "\u2581Ham": 8527,
  "\u25817,": 8528,
  "\u2581Ziffer": 8529,
  "\u2581Located": 8530,
  "\u2581input": 8531,
  "\u2581freie": 8532,
  "\u2581Trend": 8533,
  "\u2581sucht": 8534,
  "\u2581wanna": 8535,
  "rc": 8536,
  "lieb": 8537,
  "\u2581Allgemein": 8538,
  "pha": 8539,
  "\u2581Spar": 8540,
  "CD": 8541,
  "\u2581individuell": 8542,
  "\u2581wann": 8543,
  "nimmt": 8544,
  "\u2581Rate": 8545,
  "\u2581angepasst": 8546,
  "\u2581Abs": 8547,
  "ipp": 8548,
  "\u2581perspective": 8549,
  "\u25811.1": 8550,
  "grund": 8551,
  "\u2581soil": 8552,
  "\u2581gewisse": 8553,
  "\u2581umgesetzt": 8554,
  "\u2581organised": 8555,
  "\u2581Keep": 8556,
  "ART": 8557,
  "\u258169": 8558,
  "\u2581Building": 8559,
  "\u2581leather": 8560,
  "partner": 8561,
  "\u2581praktisch": 8562,
  "\u2581Hostel": 8563,
  "\u2581Ros": 8564,
  "\u2581housing": 8565,
  "\u2581Schau": 8566,
  "\u2581Vielen": 8567,
  "\u2581aufgef\u00fchrten": 8568,
  "r\u00e4ume": 8569,
  "-01": 8570,
  "\u2581HERRN": 8571,
  "\u2581tested": 8572,
  "\u2581absolut": 8573,
  "\u2581gallery": 8574,
  "ned": 8575,
  "\u2581Besch\u00e4ftigungs": 8576,
  "\u2581acting": 8577,
  "\u2581foundation": 8578,
  "fahr": 8579,
  "\u2581undertaking": 8580,
  "\u2581joy": 8581,
  "down": 8582,
  "mini": 8583,
  "tlich": 8584,
  "\u00fctz": 8585,
  "\u2581M\u00e4rkte": 8586,
  "\u2581Gegend": 8587,
  "\u2581login": 8588,
  "\u2581amerikanischen": 8589,
  "ogen": 8590,
  "\u2581verlangt": 8591,
  "\u2581Berge": 8592,
  "\u2581measured": 8593,
  "\u2581Dosis": 8594,
  "\u2581Statistik": 8595,
  "class": 8596,
  "sson": 8597,
  "-18": 8598,
  "DC": 8599,
  "\u2581EX": 8600,
  "\u2581Due": 8601,
  "\u2581dennoch": 8602,
  "\u2581fehlt": 8603,
  "Arbeitslosigkeit": 8604,
  "ident": 8605,
  "\u2581vergleichen": 8606,
  "bla": 8607,
  "\u2581Eu": 8608,
  "\u2581Sterne": 8609,
  "EA": 8610,
  "\u2581Lieferzeit": 8611,
  "\u2581offenen": 8612,
  "\u2581Beurteilung": 8613,
  "\u258174": 8614,
  "\u2581Leder": 8615,
  "\u2581Yu": 8616,
  "\u2581Sk": 8617,
  "isches": 8618,
  "ationen": 8619,
  "\u2581roof": 8620,
  "\u2581capable": 8621,
  "\u2581traditionellen": 8622,
  "eta": 8623,
  "\u2581Ruf": 8624,
  "\u2581aufge": 8625,
  "\u25812.1": 8626,
  "\u2581Agriturismo": 8627,
  "\u2581Dress": 8628,
  "\u2581carrying": 8629,
  "FO": 8630,
  "\u2581awareness": 8631,
  "\u2581installiert": 8632,
  "\u2581crime": 8633,
  ".3.": 8634,
  "ALL": 8635,
  "\u2581electrical": 8636,
  "freie": 8637,
  "\u2581Photos": 8638,
  "ahn": 8639,
  "\u2581Eisenbahn": 8640,
  "Ho": 8641,
  "\u2581showing": 8642,
  "\u2581associations": 8643,
  "\u2581assembly": 8644,
  "\u2581Christians": 8645,
  "\u2581estimated": 8646,
  "\u2581Reservierung": 8647,
  "\u2581Empf\u00e4nger": 8648,
  "\u2581pattern": 8649,
  "dler": 8650,
  "\u2581Schatz": 8651,
  "\u2581Stra": 8652,
  "\u2581Remember": 8653,
  "\u2581mar": 8654,
  "\u2581Countries": 8655,
  "\u2581K\u00f6nnen": 8656,
  "\u2581Versammlung": 8657,
  "\u2581solar": 8658,
  "F\u00fcr": 8659,
  "\u2581entirely": 8660,
  "schied": 8661,
  "\u2581suppliers": 8662,
  "\u2581SC": 8663,
  "\u2581battery": 8664,
  "iel": 8665,
  "\u2581St\u00e4rkung": 8666,
  "\u2581ermittelt": 8667,
  "new": 8668,
  "urlaub": 8669,
  "\u2581H\u00e4ndler": 8670,
  "aka": 8671,
  "\u2581h\u00f6heren": 8672,
  "weisung": 8673,
  "\u2581organisiert": 8674,
  "\u2581mechanical": 8675,
  "\u2581\u00f6ffentlich": 8676,
  "\u2581division": 8677,
  "\u2581Double": 8678,
  "\u2581Wann": 8679,
  "dien": 8680,
  "\u2581Ausbau": 8681,
  "swert": 8682,
  "\u2581interpretation": 8683,
  "rig": 8684,
  "\u2581Style": 8685,
  "\u2581enterprise": 8686,
  "vision": 8687,
  "\u2581apart": 8688,
  "\u2581transactions": 8689,
  "\u2581fucking": 8690,
  "\u2581Player": 8691,
  "\u2581proof": 8692,
  "\u2581mechanism": 8693,
  "garten": 8694,
  "\u2581Connect": 8695,
  "\u2581trifft": 8696,
  "\u2581prison": 8697,
  "\u2581Branchen": 8698,
  "\u2581Shower": 8699,
  "\u2581Angelegenheiten": 8700,
  "sym": 8701,
  "\u2581exceed": 8702,
  "\u2581respond": 8703,
  "\u2581blieb": 8704,
  "\u2581Stockholm": 8705,
  "\u2581Mallorca": 8706,
  "\u2581ehemaligen": 8707,
  "\u2581saved": 8708,
  "\u2581assist": 8709,
  "chel": 8710,
  "\u2581pilot": 8711,
  "\u2581meant": 8712,
  "\u2581Weiterbildung": 8713,
  "\u2581exclusively": 8714,
  "\u2581Bestimmungsort": 8715,
  "\u2581GBP": 8716,
  "\u2581Kr": 8717,
  "\u2581Gegensatz": 8718,
  "\u2581diameter": 8719,
  "horn": 8720,
  "\u2581bekannten": 8721,
  "\u2581male": 8722,
  "fassung": 8723,
  "Soft": 8724,
  "Po": 8725,
  "rak": 8726,
  "\u2581Cro": 8727,
  "\u258181": 8728,
  "\u2581dimension": 8729,
  "\u2581loved": 8730,
  "\u2581verwendeten": 8731,
  "\u2581fund": 8732,
  "\u2581ball": 8733,
  "\u2581Heating": 8734,
  "\u2581Sieg": 8735,
  "\u2581spot": 8736,
  "\u2581Mitgliedstaats": 8737,
  "\u2581\u00c4gypten": 8738,
  "\u2581severe": 8739,
  "\u2581sagten": 8740,
  "\u2581Richter": 8741,
  "\u2581generated": 8742,
  "stone": 8743,
  "\u2581Besitz": 8744,
  "\u2581Cooperation": 8745,
  "\u2581yellow": 8746,
  "\u2581italienischen": 8747,
  "\u2581Current": 8748,
  "\u2581gezogen": 8749,
  "\u2581kingdom": 8750,
  "\u2581removal": 8751,
  "lit": 8752,
  "\u2581Bonn": 8753,
  "\u2581cutting": 8754,
  "\u2581divided": 8755,
  "\u2581budgetary": 8756,
  "\u00f6pf": 8757,
  "view": 8758,
  "Fr": 8759,
  "ene": 8760,
  "\u2581brauche": 8761,
  "bor": 8762,
  "\u2581R\u00fccken": 8763,
  "\u2581au\u00dfergew\u00f6hnlich": 8764,
  "\u2581Syn": 8765,
  "\u2581festen": 8766,
  "Wa": 8767,
  "\u2581Ker": 8768,
  "\u2581Flugzeug": 8769,
  "museum": 8770,
  "nutzung": 8771,
  "\u2581desired": 8772,
  "\u2581K\u00f6ln": 8773,
  "imp": 8774,
  "\u2581Extension": 8775,
  "\u2581subjects": 8776,
  "\u2581Portal": 8777,
  "\u2581erfasst": 8778,
  "\u2581Tan": 8779,
  "\u2581sichere": 8780,
  "\u2581Marine": 8781,
  "\u2581Kriegs": 8782,
  "\u2581religion": 8783,
  "\u2581Ferner": 8784,
  "\u2581stattfinden": 8785,
  "\u2581Presidency": 8786,
  "reichen": 8787,
  "\u2581Ref": 8788,
  "\u2581exports": 8789,
  "\u2581m\u00f6gliche": 8790,
  "l\u00f6": 8791,
  "\u2581Bildschirm": 8792,
  "lia": 8793,
  "EF": 8794,
  "mag": 8795,
  "\u2581Sy": 8796,
  "ink": 8797,
  "\u2581Hal": 8798,
  "\u2581lokale": 8799,
  "\u2581Steel": 8800,
  "modell": 8801,
  "pack": 8802,
  "\u2581kulturellen": 8803,
  "\u2581crucial": 8804,
  "nehmen": 8805,
  "\u2581thy": 8806,
  "\u2581theory": 8807,
  "\u2581Ausr\u00fcstung": 8808,
  "\u2581compensation": 8809,
  "\u2581Valley": 8810,
  "\u2581quantities": 8811,
  "\u2581st\u00e4rken": 8812,
  "\u2581portfolio": 8813,
  "\u2581weist": 8814,
  "\u258194": 8815,
  "\u2581audio": 8816,
  "leistungen": 8817,
  "\u2581bat": 8818,
  "\u2581Question": 8819,
  "friendly": 8820,
  "\u2581Feder": 8821,
  "\u2581Georg": 8822,
  "stat": 8823,
  "\u2581Agenda": 8824,
  "\u2581ships": 8825,
  "water": 8826,
  "gua": 8827,
  "\u2581verst\u00e4rkt": 8828,
  "\u2581wichtigste": 8829,
  "\u2581Flachbild": 8830,
  "\u2581dress": 8831,
  "\u2581seconds": 8832,
  "\u2581Square": 8833,
  "\u2581speech": 8834,
  "\u2581behaviour": 8835,
  "\u2581struggle": 8836,
  "gesellschaften": 8837,
  "ches": 8838,
  "/6": 8839,
  "\u2581thereby": 8840,
  "\u2581fr\u00fcheren": 8841,
  "\u2581rasch": 8842,
  "sprache": 8843,
  "\u2581zugelassen": 8844,
  "\u2581toilet": 8845,
  "\u2581M\u00e4nnern": 8846,
  "\u2581Panel": 8847,
  "\u2581smooth": 8848,
  "pr\u00fcfung": 8849,
  "zeiten": 8850,
  "\u2581helping": 8851,
  "-20": 8852,
  "\u2581Machine": 8853,
  "\u2581resort": 8854,
  "ato": 8855,
  "suche": 8856,
  "sti": 8857,
  "\u2581Ernst": 8858,
  "\u25811,5": 8859,
  "ma\u00df": 8860,
  "\u2581Islam": 8861,
  "\u2581einfacher": 8862,
  "\u2581Geben": 8863,
  "RP": 8864,
  "lies": 8865,
  "\u2581Arbeitspl\u00e4tze": 8866,
  "\u2581calendar": 8867,
  "\u2581rare": 8868,
  "ML": 8869,
  "\u2581Hinweise": 8870,
  "\u2581enhance": 8871,
  "\u2581Hart": 8872,
  "\u2581destinations": 8873,
  "\u2581Anzeigen": 8874,
  "ali": 8875,
  "TC": 8876,
  "\u2581thin": 8877,
  "\u2581spezifische": 8878,
  "wissenschaften": 8879,
  "\u2581owners": 8880,
  "\u2581transferred": 8881,
  "l\u00f6sung": 8882,
  "\u2581criminal": 8883,
  "\u2581formation": 8884,
  "\u2581Dimension": 8885,
  "cus": 8886,
  "\u2581luxury": 8887,
  "\u2581toward": 8888,
  "\u2581agents": 8889,
  "\u2581install": 8890,
  "\u2581Tr": 8891,
  "2006": 8892,
  "lung": 8893,
  "\u2581forth": 8894,
  "\u2581disposal": 8895,
  "\u2581Bist": 8896,
  "\u2581qualified": 8897,
  "\u2581bo": 8898,
  "\u2581Teufel": 8899,
  "Vi": 8900,
  "\u2581Wochenende": 8901,
  "\u2581Erd": 8902,
  "\u2581variable": 8903,
  "\u2581heaven": 8904,
  "\u2581Tech": 8905,
  "\u2581measuring": 8906,
  "\u2581valuable": 8907,
  "\u2581220": 8908,
  "\u2581declared": 8909,
  "\u2581Beispiele": 8910,
  "\u2581Body": 8911,
  "\u2581betreffen": 8912,
  "\u2581mutual": 8913,
  "\u2581Flexibilit\u00e4t": 8914,
  "\u2581Fang": 8915,
  "\u2581Kunde": 8916,
  "\u2581Bike": 8917,
  "\u2581Umweltschutz": 8918,
  "\u2581Tanz": 8919,
  "\u2581umfassen": 8920,
  "\u2581Minute": 8921,
  "weil": 8922,
  "\u2581Silver": 8923,
  "\u2581allowing": 8924,
  "\u2581Alpen": 8925,
  "\u2581Funk": 8926,
  "\u2581exception": 8927,
  "\u2581runs": 8928,
  "UC": 8929,
  "\u2581gekauft": 8930,
  "Wie": 8931,
  "\u2581trial": 8932,
  "\u2581Active": 8933,
  "\u2581Sixt": 8934,
  "\u2581Romania": 8935,
  "\u2581renewable": 8936,
  "\u2581communications": 8937,
  "\u2581Anstrengungen": 8938,
  "\u2581NO": 8939,
  "\u2581nahmen": 8940,
  "\u2581Bol": 8941,
  "\u2581egal": 8942,
  "\u2581vorgeschlagen": 8943,
  "\u2581zugunsten": 8944,
  "menge": 8945,
  "\u2581Programmen": 8946,
  "\u2581Assembly": 8947,
  "\u2581Kosmetik": 8948,
  "MER": 8949,
  "\u2581internationaler": 8950,
  "\u2581library": 8951,
  "\u2581gutes": 8952,
  "\u2581providers": 8953,
  "\u2581Kol": 8954,
  "\u2581remote": 8955,
  "\u2581Waschmaschine": 8956,
  "\u2581applying": 8957,
  "\u2581zugleich": 8958,
  "\u2581D\u00fcsseldorf": 8959,
  "\u2581[1],": 8960,
  "Diese": 8961,
  "\u2581Jesu": 8962,
  "\u2581judgment": 8963,
  "\u2581expensive": 8964,
  "\u2581branches": 8965,
  "ison": 8966,
[...]
